<unk>	0
<s>	0
</s>	0
.	-3.3287
▁	-3.7037
을	-3.76463
의	-3.85193
를	-4.20678
는	-4.24665
에	-4.3386
이	-4.38028
가	-4.43231
은	-4.49502
,	-4.53848
고	-4.59294
에서	-5.09422
로	-5.15987
▁“	-5.16154
”	-5.20617
한	-5.24055
인	-5.3289
일	-5.33018
)	-5.3734
(	-5.40384
▁이	-5.48387
과	-5.50885
으로	-5.55865
▁있다	-5.56011
와	-5.62294
▁수	-5.70228
도	-5.77122
▁밝혔다	-5.79017
▁말했다	-5.80978
할	-5.82488
년	-5.8993
지	-5.91609
▁있는	-5.99281
다	-6.03769
며	-6.09315
하고	-6.12429
▁그	-6.1299
하는	-6.14461
했다	-6.16246
▁전	-6.1893
▁그는	-6.20124
▁2	-6.22123
▁1	-6.27979
▁대한	-6.29522
▁위해	-6.3136
만	-6.32441
월	-6.37456
▁전했다	-6.37919
▁한	-6.40101
▁미국	-6.42409
해	-6.4284
▁이번	-6.4531
▁3	-6.45655
기	-6.45807
▁지난	-6.47795
현지시간	-6.48788
▁중	-6.55911
자	-6.56664
▁대해	-6.56861
▁미	-6.5847
"	-6.59351
된	-6.61198
스	-6.61248
▁것으로	-6.63944
▁‘	-6.64914
에게	-6.65494
▁것이라고	-6.69564
명이	-6.69823
▁것	-6.7057
▁"	-6.7092
이라고	-6.72683
▁있다고	-6.76084
▁것을	-6.79332
s	-6.8137
▁4	-6.82062
나	-6.82831
’	-6.84519
리	-6.86021
▁이라크	-6.8659
▁6	-6.86906
시	-6.87816
▁5	-6.89535
▁그러나	-6.89647
게	-6.89721
▁더	-6.92488
▁다른	-6.93847
히	-6.94901
▁대통령	-6.98254
들이	-7.00975
하게	-7.01577
▁중국	-7.01876
▁한편	-7.02837
하기	-7.03736
운	-7.0418
라	-7.04501
▁10	-7.05526
라고	-7.06043
▁북한	-7.08549
하지	-7.08681
대	-7.09147
던	-7.09933
▁주	-7.10468
명의	-7.11688
▁후	-7.12549
주	-7.14827
사	-7.16155
적인	-7.16414
어	-7.17039
▁이후	-7.17544
드	-7.18071
들은	-7.18195
▁정부	-7.19152
▁통해	-7.20655
-	-7.21225
▁많은	-7.21593
서	-7.21929
▁또	-7.21963
▁위한	-7.22507
▁대통령은	-7.23025
▁영국	-7.23306
▁두	-7.24529
▁부시	-7.24778
명	-7.25968
▁8	-7.2731
세	-7.27656
▁내	-7.27721
▁가장	-7.28075
▁동안	-7.28308
▁같은	-7.29648
▁것이다	-7.29726
▁7	-7.30626
▁대변인은	-7.31196
▁바	-7.32215
트	-7.33682
▁한국	-7.33895
▁등	-7.35849
까지	-7.36452
될	-7.37365
수	-7.39536
▁주장했다	-7.40403
아	-7.41705
▁될	-7.41888
▁알	-7.42565
상	-7.42595
이다	-7.42621
▁약	-7.44029
▁것은	-7.44173
▁할	-7.44498
비	-7.44689
▁한다	-7.44689
▁세계	-7.44844
적	-7.45088
▁또한	-7.45975
르	-7.46147
▁오바마	-7.46918
▁현재	-7.47783
개	-7.47915
▁때	-7.48471
했다고	-7.48803
성	-7.49101
됐다	-7.49907
▁12	-7.50403
▁경우	-7.50496
▁보도했다	-7.50558
▁이상	-7.50751
▁일	-7.50823
부	-7.51309
▁덧붙였다	-7.51699
▁관련	-7.51977
▁9	-7.51982
▁않았다	-7.52515
▁있었다	-7.5253
및	-7.52831
하며	-7.53255
▁문제	-7.53674
▁최근	-7.53832
야	-7.55095
했으며	-7.55096
▁영화	-7.55218
에는	-7.55321
▁했다	-7.55802
치	-7.56912
면	-7.57549
했던	-7.58592
니	-7.59035
e	-7.5981
들을	-7.59881
▁자신의	-7.60147
▁말	-7.60166
▁뒤	-7.6169
'	-7.62195
▁경제	-7.62808
▁함께	-7.6309
▁11	-7.63289
▁것이	-7.6343
▁일부	-7.63854
▁새로	-7.64531
미	-7.64651
▁'	-7.65144
▁당시	-7.65405
원	-7.65646
전	-7.66947
▁20	-7.6701
▁모든	-7.67804
▁그리고	-7.67988
진	-7.6818
▁일본	-7.68582
크	-7.68645
소	-7.68722
▁조사	-7.6958
▁때문에	-7.6966
선	-7.7088
▁제	-7.71117
▁지	-7.71752
▁예정이다	-7.72075
▁수도	-7.72273
▁19	-7.72611
▁없다	-7.72833
보	-7.73455
▁있습니다	-7.7398
마	-7.73996
▁설명했다	-7.74129
▁몇	-7.75019
차	-7.75585
화	-7.76021
▁비	-7.76072
▁있으며	-7.76147
해야	-7.76324
▁아	-7.76338
에서는	-7.77183
▁경찰은	-7.77387
▁모두	-7.77752
▁공격	-7.79185
▁미군	-7.79432
약	-7.80419
▁정부는	-7.80853
▁파키스탄	-7.80968
▁프랑스	-7.81493
▁유엔	-7.81528
보다	-7.81738
한다	-7.82052
당	-7.82266
억	-7.8242
▁계속	-7.82457
분	-7.82925
▁큰	-7.83013
▁국가	-7.8316
▁시	-7.83613
▁나	-7.84858
▁30	-7.85171
▁민주당	-7.85476
하다	-7.85842
▁계획	-7.86046
▁사	-7.86313
▁지역	-7.86428
▁마	-7.86693
▁러시아	-7.86803
▁이들	-7.86818
▁하는	-7.8717
▁지난해	-7.87463
▁이스라엘	-7.87756
파	-7.88691
적으로	-7.88731
▁경찰	-7.89186
▁사고	-7.89418
장	-7.89594
명을	-7.89726
▁열린	-7.8986
바	-7.90209
즈	-7.90456
타	-7.90589
▁않을	-7.90814
▁대통령이	-7.90943
▁클린턴	-7.91953
2	-7.92137
제	-7.92374
여	-7.92557
▁올해	-7.9271
들	-7.9274
▁오	-7.92751
▁(	-7.93406
▁발생한	-7.94364
그	-7.94587
▁이날	-7.9471
용	-7.9482
디	-7.95008
프	-7.95117
▁총리는	-7.95173
▁우리	-7.95394
▁the	-7.95542
정	-7.96017
▁발표했다	-7.96477
오	-7.96533
▁경기	-7.9658
▁핵	-7.96649
하	-7.97105
▁지원	-7.97574
국	-7.97625
했습니다	-7.97626
▁15	-7.9782
▁반	-7.97849
신	-7.98278
▁받고	-7.98998
우	-7.99163
내	-7.99176
▁후보	-7.99714
▁테러	-8.00561
▁달러	-8.00903
티	-8.01785
간	-8.01997
라는	-8.02068
에따르면	-8.02439
에도	-8.02929
d	-8.02941
▁결과	-8.02986
▁있을	-8.03262
▁거	-8.03319
조	-8.03576
었다	-8.04238
▁가운데	-8.0459
위	-8.0462
▁하고	-8.04759
▁미국의	-8.05645
시간	-8.0573
▁연구	-8.05737
▁존	-8.05827
▁다	-8.05988
이나	-8.06114
▁16	-8.06121
▁해	-8.06343
▁to	-8.06817
레	-8.07287
▁데	-8.07533
▁발표	-8.07568
회	-8.07646
▁결정	-8.07666
▁부	-8.07927
▁선거	-8.07994
으며	-8.07996
구	-8.08021
m	-8.0823
▁의해	-8.08398
▁여성	-8.08407
▁이란	-8.08499
▁달	-8.0874
▁회담	-8.08834
▁된다	-8.08885
부터	-8.09131
▁사건	-8.09153
▁총리	-8.09227
▁대	-8.09241
▁주요	-8.09467
▁국제	-8.09644
▁안	-8.09652
러	-8.09766
▁사람들이	-8.09795
▁정부가	-8.10069
토	-8.10229
▁군	-8.1024
1	-8.10554
▁18	-8.10572
면서	-8.11157
▁다시	-8.11249
)’	-8.11337
▁무	-8.11717
▁인해	-8.11843
▁보고	-8.11913
▁관계	-8.12089
입니다	-8.12918
▁됐다	-8.13127
▁세	-8.13266
카	-8.13641
▁않은	-8.13746
길	-8.13939
코	-8.13952
질	-8.13981
산	-8.14053
식	-8.14419
▁에	-8.14639
▁of	-8.14648
▁초	-8.14951
.”	-8.15283
▁13	-8.1578
모	-8.16059
▁첫	-8.16306
▁혐의로	-8.16307
▁시간	-8.16957
되는	-8.17105
하면서	-8.17376
▁총	-8.17483
▁채	-8.17875
▁보	-8.18
▁있다는	-8.18357
▁조	-8.18721
▁인도	-8.19232
려	-8.19242
▁정	-8.19629
노	-8.1991
되어	-8.19919
지만	-8.19995
▁조치	-8.2004
▁노	-8.20096
▁이미	-8.20735
▁프로그램	-8.20884
호	-8.21195
▁시위	-8.21254
▁승리	-8.21537
y	-8.21705
▁14	-8.2191
▁위치한	-8.22056
▁받았다	-8.22099
km	-8.22111
계	-8.22183
들의	-8.22339
권	-8.22344
▁기	-8.22475
관	-8.22881
▁차	-8.23005
단	-8.23054
▁우려	-8.23181
브	-8.23516
번	-8.23629
▁팔레스타인	-8.23693
하여	-8.237
▁아프간	-8.23777
린	-8.23789
S	-8.23897
▁모	-8.23972
▁줄	-8.2399
▁없는	-8.24411
돼	-8.24592
▁방문	-8.24689
▁불	-8.25263
▁파	-8.25452
▁강	-8.25647
▁회사	-8.25752
더	-8.25842
▁뉴욕	-8.25887
a	-8.2606
▁성	-8.26157
▁아직	-8.26274
▁TV	-8.26453
▁독일	-8.26477
▁감독	-8.2741
▁활동	-8.27422
▁소속	-8.27606
▁피해	-8.27798
이라며	-8.27802
▁추가	-8.28067
▁사실을	-8.28585
▁내용	-8.28692
로부터	-8.28747
▁25	-8.2945
루	-8.29737
▁혐의	-8.29923
▁관리	-8.29952
▁시장	-8.30045
▁관계자는	-8.30113
▁않고	-8.3057
▁잘	-8.30708
직	-8.3084
▁아이	-8.31085
▁유	-8.31328
점	-8.31331
▁유럽	-8.31445
/	-8.3166
▁지적했다	-8.32104
▁''	-8.32162
▁한다고	-8.32192
o	-8.32272
습니다	-8.32596
▁최고	-8.32654
▁대선	-8.32673
달러	-8.32701
▁지지	-8.32808
▁하	-8.32884
되고	-8.32985
▁17	-8.33022
▁지금	-8.33032
▁포함	-8.33649
▁당	-8.33799
살	-8.33875
▁기록	-8.3394
▁협상	-8.33943
▁상원의원	-8.33947
년간	-8.34045
실	-8.34243
▁조지	-8.3439
▁매우	-8.34551
물	-8.34559
▁재	-8.35104
▁명의	-8.35123
▁피	-8.35146
법	-8.35386
▁카	-8.35455
▁올림픽	-8.35541
▁구	-8.35626
▁당국은	-8.35743
▁이슬람	-8.35772
▁원	-8.35786
▁공	-8.35968
▁간	-8.36325
▁탈레반	-8.36549
▁대부분	-8.36641
공	-8.36731
▁매케인	-8.3713
든	-8.37151
▁W	-8.37166
중	-8.3747
동	-8.37637
개월	-8.37772
▁호주	-8.37775
A	-8.37897
▁자	-8.38231
▁신	-8.38277
▁없다고	-8.38363
▁in	-8.3854
▁판매	-8.38541
▁차량	-8.38557
▁대학	-8.38854
▁전쟁	-8.38999
난	-8.39018
▁받은	-8.39319
▁예정	-8.39382
였다	-8.39382
▁못했다	-8.39661
ing	-8.3981
처럼	-8.3981
▁않는다	-8.39878
3	-8.40332
▁인터넷	-8.40367
▁노력	-8.40505
▁이는	-8.40703
▁상	-8.40825
▁사람	-8.41065
력	-8.41209
ed	-8.41262
체	-8.4142
되지	-8.41796
▁비난	-8.41836
5	-8.42006
?	-8.42139
▁2006	-8.42409
안	-8.42434
▁많	-8.42435
▁어떤	-8.42716
▁주장	-8.42787
▁시작	-8.42795
▁24	-8.42822
▁이에	-8.42889
▁부상	-8.4315
▁오늘	-8.4317
▁여러	-8.43351
▁우주	-8.43719
▁타	-8.43722
▁새	-8.43746
▁폭탄	-8.43921
▁하지만	-8.43993
발	-8.44369
▁하지	-8.44541
▁사망	-8.44556
▁100	-8.44684
▁있던	-8.44829
▁해결	-8.45048
▁물	-8.45089
▁오후	-8.45124
▁21	-8.45255
▁석방	-8.45356
▁매	-8.45591
▁기술	-8.45668
▁50	-8.45771
▁개발	-8.45779
했고	-8.45913
▁입장	-8.45993
피	-8.46038
▁생각	-8.46213
문	-8.46216
▁도시	-8.46434
명은	-8.46705
유	-8.47021
▁검찰	-8.47501
▁양	-8.4757
경	-8.47582
▁방송	-8.47712
군	-8.47964
터	-8.48121
종	-8.48161
▁날	-8.48382
▁미얀마	-8.48393
무	-8.48495
▁27	-8.48519
▁기자	-8.48699
임	-8.4891
릴	-8.4891
▁안전	-8.49088
▁배	-8.49248
▁정책	-8.49392
하는데	-8.49662
▁있어	-8.49935
포	-8.50057
개의	-8.50059
키	-8.50133
반	-8.50269
이며	-8.50416
▁23	-8.50571
▁A	-8.50623
되었다	-8.50809
▁반대	-8.5095
▁소	-8.51003
▁준비	-8.51046
▁인터뷰에서	-8.51051
▁병원	-8.51128
이었다	-8.51143
▁22	-8.51433
▁자동차	-8.5152
데	-8.51623
형	-8.51656
▁라	-8.51697
▁컴퓨터	-8.51791
▁김	-8.51942
▁강조했다	-8.52017
들에게	-8.5222
▁이러	-8.52405
▁갖고	-8.52438
▁된	-8.52514
▁것에	-8.52663
▁그들은	-8.52701
했지만	-8.5274
▁공화당	-8.5319
▁처음	-8.53335
▁점	-8.5342
▁합의	-8.53438
들과	-8.53516
▁발	-8.53584
▁리	-8.5388
▁앞서	-8.53926
▁떨어진	-8.54025
▁산	-8.54291
▁발생	-8.54367
▁원문기사보기	-8.54597
▁있도록	-8.546
▁사이	-8.54711
▁오전	-8.54719
▁개	-8.54747
▁대표	-8.54803
▁마지막	-8.55405
▁남부	-8.55459
c	-8.55506
▁이어	-8.55659
▁비난했다	-8.55874
▁투표	-8.55895
석	-8.5598
i	-8.56144
재	-8.5616
▁서	-8.56407
온	-8.56486
:	-8.5656
▁북한이	-8.56571
▁터키	-8.56613
al	-8.56885
하도록	-8.56893
▁가진	-8.56929
하기로	-8.56979
▁증가	-8.57297
▁경찰이	-8.57308
▁변화	-8.5731
▁오는	-8.57405
에따라	-8.5746
네	-8.57818
▁2005	-8.5799
했으나	-8.5818
▁미국과	-8.58679
▁의사	-8.58761
C	-8.58856
▁볼	-8.58927
감	-8.59013
▁장관은	-8.59022
▁폭발	-8.59033
란	-8.59053
7	-8.59365
▁인근	-8.59428
▁S	-8.59585
▁상황	-8.59632
▁처음으로	-8.59736
방	-8.59789
▁자신이	-8.59819
▁외	-8.59836
▁도	-8.59859
▁그녀	-8.59869
▁이를	-8.60294
이라는	-8.60329
▁사용	-8.60592
▁그녀는	-8.60677
▁정치	-8.60733
▁위협	-8.60757
▁규모	-8.60939
▁코	-8.60993
▁생산	-8.61161
▁남자	-8.61187
거	-8.61191
▁버락	-8.6123
으로부터	-8.61278
▁성명	-8.61294
▁지난달	-8.61469
▁반군	-8.61554
▁아시아	-8.61644
했었다	-8.6166
▁치료	-8.61733
연	-8.61744
▁없었다	-8.6178
▁여행	-8.61904
▁힐러리	-8.61992
▁26	-8.62023
▁이탈리아	-8.62192
▁a	-8.62279
▁최소	-8.62433
▁40	-8.62452
6	-8.62724
▁실	-8.62768
▁스	-8.62773
▁선	-8.628
▁지역에서	-8.62817
▁금융	-8.62938
거나	-8.63078
▁연방	-8.63298
▁앞으로	-8.63351
▁있지만	-8.63578
▁CNN	-8.63658
▁영향	-8.63691
▁장	-8.6377
버	-8.63771
▁자신	-8.63889
▁야당	-8.6398
t	-8.64007
▁없이	-8.64019
▁열	-8.64116
▁보인다	-8.64369
▁보도	-8.64561
▁관한	-8.64738
▁사망했다	-8.64899
지는	-8.64977
학	-8.65614
▁다음	-8.65831
▁불법	-8.65938
교	-8.66001
▁스페인	-8.6612
와의	-8.66156
▁이용	-8.66215
▁의회	-8.66558
▁중단	-8.66715
▁않다	-8.66765
▁사망자	-8.66828
▁좋은	-8.67
▁만에	-8.67077
▁살해	-8.67092
▁자금	-8.67251
됐다고	-8.67461
▁사람들	-8.67469
▁이름	-8.6759
▁미국이	-8.67768
번째	-8.67778
▁현지	-8.67841
▁가격	-8.67911
_	-8.68105
▁돈	-8.68178
er	-8.68269
▁발견	-8.68398
▁당국	-8.68575
는데	-8.68607
배	-8.68803
▁상태	-8.68846
▁29	-8.69002
우리는	-8.6911
▁은행	-8.69166
요	-8.692
▁공식	-8.69229
▁비행기	-8.69462
▁저	-8.69525
강	-8.69533
N	-8.69586
▁사태	-8.69649
▁런던	-8.6974
▁행사	-8.69783
심	-8.69849
▁언론	-8.69863
▁가능성	-8.69889
▁미사일	-8.69943
n	-8.70126
▁밤	-8.70263
▁사람들은	-8.704
P	-8.70515
다고	-8.70651
▁평화	-8.70659
▁거래	-8.70772
▁28	-8.70777
츠	-8.71055
된다	-8.71087
위원회	-8.71112
article	-8.71211
▁무기	-8.71224
▁백악관	-8.7126
▁최대	-8.71418
건	-8.71464
▁주둔	-8.71475
▁이들은	-8.71578
▁알려졌다	-8.71806
날	-8.71839
▁명	-8.71932
▁AP	-8.72448
▁조직	-8.72477
▁어	-8.72535
▁논의	-8.72592
▁적	-8.72826
▁벌이	-8.72964
▁불구하고	-8.73567
▁중요한	-8.73747
▁연기	-8.73756
▁팀	-8.73878
됐으며	-8.74155
▁집	-8.7441
▁발언	-8.74452
▁오바마는	-8.74529
▁말했습니다	-8.74529
▁바그다드	-8.7468
▁공급	-8.74697
▁이전	-8.74741
팀	-8.7485
▁레	-8.74854
▁발생했다	-8.74898
▁박사는	-8.74923
▁사망한	-8.75128
▁대통령과	-8.75131
p	-8.75138
▁서울	-8.75176
▁게임	-8.75335
▁포	-8.75343
▁필요	-8.75527
병	-8.75569
▁것입니다	-8.75844
▁지구	-8.75999
하자	-8.7612
급	-8.76159
▁막	-8.76328
▁용의자	-8.76334
천	-8.76384
▁이런	-8.76465
▁정도	-8.76484
▁역할	-8.7661
▁미국은	-8.76709
▁반면	-8.76935
▁B	-8.76988
론	-8.76989
▁관심	-8.77107
u	-8.77284
▁법원	-8.77437
▁올	-8.77449
청	-8.77537
▁코리아	-8.77557
▁2008	-8.77916
▁고위	-8.78102
▁우	-8.7818
너	-8.78265
▁인질	-8.783
▁이야기	-8.78358
▁부토	-8.78414
▁상승	-8.78646
▁역사	-8.78675
▁메	-8.78752
’’	-8.78834
▁학교	-8.78863
and	-8.78939
▁무샤라프	-8.79537
▁공동	-8.79625
▁보안	-8.79785
▁북부	-8.798
작	-8.79806
울	-8.79822
▁동	-8.79886
▁회장	-8.79984
▁투자	-8.80163
행	-8.80178
▁사망했다고	-8.80227
▁법	-8.80264
2005.08	-8.80295
저	-8.80378
▁서비스	-8.80565
마리	-8.80661
I	-8.80741
두	-8.80747
▁기간	-8.80858
래	-8.80953
▁방	-8.81073
▁위험	-8.81104
▁정치적	-8.81114
▁보다	-8.81118
▁수사	-8.8112
스트	-8.81123
워	-8.8113
T	-8.81253
▁나라	-8.81479
M	-8.81488
▁단체	-8.81518
▁의하면	-8.81531
포인트	-8.81586
CNN	-8.81592
▁알카에다	-8.81643
▁앞	-8.81651
▁모습을	-8.81718
층	-8.81764
▁자신들	-8.81772
▁건물	-8.81838
▁입	-8.81927
▁워싱턴	-8.81999
▁의원	-8.82017
▁2005.08	-8.82037
▁부족	-8.82166
▁충돌	-8.82204
▁살	-8.82228
▁군사	-8.82323
▁발사	-8.82371
▁지도자	-8.82384
시킬	-8.82506
친	-8.82608
▁것이라는	-8.82626
▁치	-8.82685
▁요구	-8.82692
4	-8.82709
▁자살	-8.82799
하면	-8.82831
▁공항	-8.82856
▁행위	-8.82862
▁우승	-8.82928
설	-8.8301
▁출신	-8.83106
▁감소	-8.83148
E	-8.83173
▁가능성이	-8.83362
▁높은	-8.83406
▁더욱	-8.83412
▁지난주	-8.83606
기를	-8.83714
▁뜻	-8.83751
▁왔다	-8.83791
간의	-8.83847
▁호	-8.83862
류	-8.83871
▁국경	-8.83878
▁정보	-8.83978
▁인용	-8.84058
D	-8.84082
F	-8.8409
후	-8.84094
▁행동	-8.84135
’(	-8.84505
▁여	-8.84514
▁사업	-8.84529
▁뉴스	-8.84795
▁성명에서	-8.84835
▁위기	-8.84987
▁금지	-8.85064
▁하마스	-8.85201
▁위	-8.85215
민	-8.85328
▁&	-8.85505
▁전에	-8.8583
▁지역에	-8.85835
편	-8.85867
▁폐쇄	-8.85919
판	-8.86018
▁보호	-8.86176
만달러	-8.86217
세의	-8.86257
▁신문	-8.8626
▁힘	-8.86386
▁하나	-8.86408
속	-8.86417
▁가족	-8.86462
▁건강	-8.86628
▁이와	-8.86735
▁아니다	-8.86784
▁말을	-8.86809
▁것이며	-8.8701
▁인쇄	-8.87037
▁검사	-8.87213
초	-8.87236
이번	-8.87247
▁알고	-8.87321
▁2004	-8.87393
▁전화	-8.87512
▁for	-8.87587
한다고	-8.87595
▁총리가	-8.8762
▁손	-8.87671
▁않는	-8.87696
g	-8.87846
h	-8.87992
▁독립	-8.88045
▁길	-8.8839
▁N	-8.88718
였던	-8.88753
▁캘리포니아	-8.88791
▁분	-8.88837
▁폭탄테러	-8.8888
▁않았다고	-8.88938
탄	-8.89021
금	-8.89171
▁병력	-8.89204
장은	-8.89234
▁단	-8.89274
하겠다고	-8.89415
▁철수	-8.8947
B	-8.89691
도록	-8.89718
스는	-8.89775
▁시신	-8.89868
▁기자회견에서	-8.90019
▁어제	-8.90166
▁핵무기	-8.90174
슨	-8.90592
▁하루	-8.90605
O	-8.90631
▁되는	-8.90807
하던	-8.90848
▁직접	-8.90866
▁필요한	-8.91132
▁아침	-8.91176
▁관련된	-8.91346
증	-8.9137
▁라이스	-8.9137
▁아니라	-8.91375
▁회의	-8.91502
설명	-8.91608
▁여부	-8.91613
▁체포	-8.91677
▁동영상	-8.91694
▁곳	-8.9174
▁루	-8.91803
▁범죄	-8.91856
해서	-8.9192
▁각	-8.91928
억원	-8.91982
▁확보	-8.9213
▁증거	-8.92227
▁국방부	-8.92235
▁방법	-8.92325
▁재개	-8.92534
▁환경	-8.9254
▁베이징	-8.92582
▁아들	-8.92629
▁사람이	-8.92868
▁국민	-8.92882
“	-8.92984
l	-8.93063
▁우리는	-8.93084
▁문	-8.93163
▁시설	-8.93224
▁시도	-8.93225
JO	-8.93285
긴	-8.93316
차례	-8.93344
▁사르코지	-8.93408
년대	-8.93537
▁타고	-8.93582
만명	-8.93673
▁요청	-8.93709
양	-8.93899
▁주택	-8.93933
▁협력	-8.93996
그러나	-8.94098
▁들	-8.94101
영	-8.94206
▁아버지	-8.94281
▁있고	-8.94335
▁정상	-8.94348
INS	-8.94359
년에	-8.94382
했을	-8.94382
색	-8.94385
▁받을	-8.94473
▁작전	-8.94636
함	-8.94667
▁원문	-8.94759
▁경	-8.94831
▁티베트	-8.94915
▁석유	-8.95113
년까지	-8.95296
▁아프가니스탄	-8.95299
▁노무현	-8.95526
▁콜롬비아	-8.9559
▁결국	-8.95654
▁상원	-8.95689
▁생활	-8.95732
인한	-8.96068
▁건설	-8.96119
▁역시	-8.96221
출	-8.96244
▁납치	-8.96269
통	-8.96276
▁딸	-8.96317
▁심	-8.96518
▁사진	-8.96584
▁번째	-8.96617
▁F	-8.96845
▁비행	-8.96893
▁하락	-8.96931
▁내년	-8.96947
▁골	-8.97037
▁확인	-8.97107
▁아이들	-8.97109
▁보내	-8.97245
▁진행	-8.97325
하려	-8.97456
f	-8.97477
▁2003	-8.97688
▁열리는	-8.97741
▁곧	-8.97746
▁사회	-8.97837
▁이유로	-8.97838
▁공개	-8.97891
▁기업	-8.97999
▁제안	-8.98114
▁숨졌다	-8.98126
미국	-8.98205
독해	-8.98334
▁수준	-8.98438
▁60	-8.9848
▁사건에	-8.98623
▁친구	-8.9864
▁언급	-8.98651
▁국무부	-8.98806
r	-8.98813
▁눈	-8.98838
&	-8.99011
▁부인	-8.99052
▁문제에	-8.99128
▁타임즈	-8.99179
▁Korea	-8.99237
▁결혼	-8.99469
▁의견	-8.99499
▁온	-8.99518
G	-8.99562
▁호텔	-8.99661
▁판결	-8.99689
▁구조	-8.99729
an	-8.99751
▁도로	-8.99998
▁경쟁	-9.00117
▁인정	-9.00138
▁연설	-9.00273
▁애	-9.00281
▁빌	-9.00611
▁지방	-9.00636
▁속	-9.00685
▁통과	-9.00922
▁예정이라고	-9.00926
▁C	-9.00978
있는	-9.01062
▁어떻게	-9.01088
졌다	-9.01106
▁남	-9.01222
▁맥	-9.01226
▁최초	-9.0129
▁전망	-9.01396
R	-9.0147
▁만	-9.0148
져	-9.01534
▁훈련	-9.01666
▁시스템	-9.02008
▁경선	-9.02294
▁키	-9.02305
▁같다	-9.02351
▁보였다	-9.02478
품	-9.02568
▁페	-9.02617
▁현	-9.02628
▁못	-9.02683
▁주변	-9.02689
▁예상	-9.02807
en	-9.02823
일간	-9.02842
▁폴	-9.02935
▁레바논	-9.02969
에서도	-9.02979
▁이동	-9.02991
▁드	-9.03025
▁성장	-9.03102
▁시작했다	-9.0321
▁H	-9.03434
▁승인	-9.035
▁전문가들은	-9.03558
▁요구했다	-9.03571
만원	-9.03589
▁에너지	-9.0359
예	-9.0362
▁까지	-9.03626
▁선수	-9.03646
량	-9.03697
▁한국인	-9.03706
▁산업	-9.0378
나는	-9.03828
▁임무	-9.03844
▁방안	-9.04
▁해외	-9.04034
▁이같	-9.04054
▁정보를	-9.04072
▁일정	-9.04078
하려는	-9.04122
하라	-9.04184
▁인구	-9.04272
▁200	-9.04364
▁태국	-9.04404
▁성공	-9.04504
위를	-9.04539
▁음악	-9.04589
▁또는	-9.04764
▁있게	-9.04835
▁에서	-9.04891
명과	-9.05022
▁데이비드	-9.05034
▁대선후보	-9.05038
in	-9.05133
▁발견했다	-9.05141
▁예	-9.05147
▁개인	-9.05153
측	-9.05228
▁베	-9.05291
▁2000	-9.05481
▁과학자들	-9.05709
▁보고서	-9.05979
본	-9.05983
▁본	-9.06107
▁추	-9.06213
▁시위대	-9.06381
시켰다	-9.06416
▁선택	-9.06457
▁수술	-9.06512
으나	-9.06517
추	-9.06628
▁앞두고	-9.06657
▁운동	-9.0673
▁비디오	-9.06743
▁대변인	-9.06769
▁한나라당	-9.0697
com	-9.06977
▁사망하고	-9.07064
▁비롯	-9.0707
▁이제	-9.07145
▁교육	-9.07151
▁여객기	-9.07216
▁생각한다	-9.07242
매	-9.07245
▁연	-9.07311
▁너무	-9.07369
쳐	-9.07427
생	-9.07598
▁통	-9.07678
▁배우	-9.07855
처	-9.07895
▁나타났다	-9.07955
업	-9.08015
지역	-9.08189
▁어린이	-9.08412
%	-9.0846
▁관할	-9.08465
▁대사관	-9.08622
▁팔	-9.08653
케	-9.08702
▁민간인	-9.09235
▁전투	-9.09397
▁장관	-9.09516
▁있었던	-9.0957
▁포함한	-9.09726
▁전세계	-9.09764
▁변	-9.0997
▁행정부	-9.10058
▁회복	-9.10086
▁멕시코	-9.10091
▁바로	-9.10213
▁별	-9.10252
▁도움	-9.10321
혀	-9.10385
▁대규모	-9.10414
▁가지	-9.10475
렌	-9.1067
역	-9.10764
▁제작	-9.10969
▁네	-9.10998
▁출전	-9.11005
▁운영	-9.11008
억달러	-9.11034
▁경고	-9.11064
▁화재	-9.11218
▁판사	-9.11272
▁아닌	-9.11273
ar	-9.11642
▁여전	-9.11753
▁안에	-9.11811
베	-9.11915
▁인도네시아	-9.12025
씨는	-9.12104
▁로버트	-9.12123
메	-9.12218
▁전체	-9.12227
▁브라운	-9.12287
▁아프리카	-9.12455
▁교수는	-9.12758
테	-9.12929
커	-9.13013
▁T	-9.13087
▁가지고	-9.1319
▁출연	-9.13203
▁의원은	-9.13218
▁촉구했다	-9.13276
합니다	-9.13343
승	-9.1342
▁밝혀졌다	-9.1343
퍼센트	-9.1344
▁무장	-9.13482
▁주민	-9.13629
▁받아	-9.13692
▁수치	-9.13713
▁벌	-9.13813
독	-9.13824
우리	-9.13858
▁2002	-9.13904
▁버	-9.13988
K	-9.14001
▁입은	-9.14098
현	-9.14214
)'	-9.14222
▁31	-9.14295
▁규정	-9.14305
▁수단	-9.14311
8	-9.1436
등	-9.14404
박	-9.14829
▁입었다	-9.14834
▁했다고	-9.14891
▁안보	-9.14903
엔	-9.14927
▁특히	-9.14945
▁인간	-9.14967
▁스타	-9.15016
▁인권	-9.15135
▁그들의	-9.15206
투	-9.15224
▁대신	-9.15245
▁동물	-9.15341
L	-9.15399
▁수입	-9.15448
됐	-9.15482
장을	-9.15506
▁국내	-9.15675
▁제재	-9.15714
▁경기에서	-9.1572
남	-9.15859
▁유지	-9.16061
▁토	-9.16065
▁마을	-9.16197
▁LA	-9.16199
이자	-9.1625
▁말한다	-9.16404
▁폭력	-9.16405
▁대회	-9.16512
▁디	-9.16584
▁살고	-9.16593
▁제품	-9.16607
▁만나	-9.1669
로서	-9.16807
▁진	-9.16819
▁이상이	-9.16848
on	-9.16899
▁항공	-9.16945
▁홍콩	-9.16988
▁작은	-9.17
▁일을	-9.17052
▁알리	-9.17074
▁마련	-9.17155
▁암	-9.17198
▁직원	-9.17204
▁여자	-9.17218
▁관계자가	-9.17237
▁온라인	-9.17437
▁최종	-9.1745
▁열차	-9.17761
le	-9.1777
▁심각한	-9.17869
▁푸틴	-9.17901
▁정당	-9.17921
▁건	-9.18238
▁필요하다	-9.18407
월에	-9.18509
▁있기	-9.18579
표	-9.186
it	-9.18676
▁경고했다	-9.18741
▁메시지	-9.1882
▁밝힌	-9.18823
▁대의원	-9.18827
▁일이	-9.18872
▁연합	-9.18916
▁가치	-9.18966
▁사임	-9.19011
▁연료	-9.19022
곳	-9.19067
▁돌	-9.19208
▁중인	-9.19209
▁친	-9.19273
▁없을	-9.19282
▁개선	-9.19373
▁부대	-9.19536
▁파업	-9.19538
▁주도	-9.19621
▁관리들	-9.19665
▁플로리다	-9.19688
달	-9.19792
▁걸	-9.19824
▁무장세력	-9.19971
▁주식	-9.19991
▁반응	-9.20006
▁아무	-9.20078
▁발표한	-9.2024
▁종	-9.20345
▁아기	-9.20459
▁환자	-9.206
▁캐나다	-9.20684
▁원인	-9.21213
▁마이클	-9.21304
▁번	-9.21308
▁벌였다	-9.21416
▁동부	-9.21482
▁편	-9.21792
▁비해	-9.21876
▁변호사	-9.22015
▁계약	-9.22027
▁얼마	-9.22053
▁표	-9.22061
▁M	-9.22081
▁시험	-9.22117
k	-9.22189
▁대만	-9.22198
▁기록했다	-9.22211
▁외국인	-9.22449
▁G	-9.22571
or	-9.226
▁D	-9.22659
▁광고	-9.22676
▁담당	-9.22746
▁난	-9.22791
▁이라크에서	-9.22938
▁서로	-9.22942
채	-9.23015
▁화요일	-9.23207
▁미국인	-9.23399
▁이유	-9.23434
▁힐	-9.23508
▁명이	-9.23513
톤	-9.23694
▁지역의	-9.23773
▁중동	-9.239
▁P	-9.23926
▁브라질	-9.24034
▁책임	-9.24155
▁헬기	-9.24164
▁빈	-9.24166
▁감시	-9.24205
년부터	-9.24259
하겠다	-9.24264
▁결	-9.24408
▁갈	-9.24455
▁스미스	-9.24522
▁여름	-9.24532
▁작품	-9.24558
▁제한	-9.24574
하거나	-9.24604
▁지명	-9.24715
▁f	-9.24744
료	-9.2475
▁해안	-9.24768
▁케냐	-9.25015
▁사실	-9.25093
▁실험	-9.2517
각	-9.25193
▁들어	-9.25233
▁구성	-9.25238
복	-9.25276
▁재판	-9.25357
▁미국에서	-9.25357
되기	-9.25363
▁실시	-9.2539
이었던	-9.25542
▁외국	-9.25571
▁학생	-9.25611
▁짐바브웨	-9.25621
▁국영	-9.25625
▁내렸다	-9.25697
▁남편	-9.25745
▁후보가	-9.25753
▁나는	-9.25802
▁거리	-9.25832
▁각각	-9.26013
▁비용	-9.26016
w	-9.26048
▁국회	-9.2615
▁같이	-9.26156
▁양국	-9.26202
▁식량	-9.26251
자들은	-9.26327
▁시아파	-9.26497
▁소송	-9.26735
▁해군	-9.26862
록	-9.26905
▁밖에	-9.26912
▁차례	-9.26915
들에	-9.26983
▁평균	-9.27
▁권리	-9.27036
센터	-9.27042
▁쇼	-9.27062
▁대변인이	-9.27098
▁라디오	-9.27163
불	-9.27364
목	-9.27364
▁시즌	-9.27457
▁남성	-9.2747
골	-9.27473
쉬	-9.27584
▁배치	-9.27614
한다는	-9.27637
▁인상	-9.27657
▁국민들	-9.27751
망	-9.27791
▁잡	-9.27792
▁가스	-9.27978
퍼	-9.28078
▁개최	-9.28105
▁총선	-9.28286
▁내려	-9.28332
집	-9.28545
▁전달	-9.28595
▁발견됐다	-9.28619
▁않아	-9.28652
▁엘	-9.28731
▁과정에서	-9.28762
▁여론조사	-9.28809
▁일본의	-9.28898
▁과거	-9.28953
▁감	-9.28975
▁텍사스	-9.28998
▁버스	-9.29084
이란	-9.29114
▁특별	-9.29131
줄	-9.29276
▁L	-9.29311
▁정권	-9.29319
▁처리	-9.29425
열	-9.29521
▁약속	-9.29546
▁부상했다	-9.29564
▁파병	-9.29581
▁강제	-9.29637
▁주말	-9.29708
▁경찰에	-9.29788
▁웹사이트	-9.29815
▁위원회	-9.29819
▁천	-9.2985
▁다양	-9.29907
▁몸	-9.29973
튼	-9.3001
▁U	-9.30015
50	-9.30029
렸다	-9.30049
es	-9.30101
▁K	-9.30225
▁사건이	-9.3024
기도	-9.30286
▁담	-9.30316
▁공연	-9.30323
거리	-9.30361
▁다리	-9.30392
절	-9.30409
▁당신	-9.3042
▁헤	-9.30445
일까지	-9.30543
▁걸쳐	-9.30581
▁설치	-9.30995
▁강화	-9.3101
▁센터	-9.31014
▁사이에	-9.31056
▁통제	-9.31072
▁자유	-9.31161
▁자료	-9.31175
개국	-9.3118
여명	-9.3132
▁/	-9.31397
▁항공사	-9.31407
▁500	-9.31599
▁부통령	-9.31608
언	-9.31696
락	-9.31738
▁2007	-9.31858
가지	-9.31931
▁결정했다	-9.32066
시켜	-9.3213
▁평가	-9.32172
▁목표	-9.32444
▁앤	-9.32483
▁주재	-9.32625
액	-9.32653
▁발전	-9.32661
▁섬	-9.32678
▁제공	-9.32797
▁대상으로	-9.32894
~	-9.32923
▁선고	-9.33014
▁박	-9.33189
▁이에앞서	-9.332
▁논쟁	-9.33201
외	-9.33359
▁수출	-9.33468
▁진압	-9.3348
▁것과	-9.33484
▁유일	-9.335
▁기소	-9.33542
▁지나	-9.33598
▁그룹	-9.33637
▁사퇴	-9.33749
결	-9.33781
대로	-9.33837
▁바이러스	-9.33918
▁주민들	-9.33981
▁샤	-9.34023
해왔다	-9.34055
▁관계자들은	-9.34107
b	-9.34191
▁공습	-9.34286
▁나이	-9.34311
▁The	-9.34427
▁희망	-9.34739
▁알려진	-9.34824
▁발견된	-9.34828
▁그런	-9.34842
▁올라	-9.34859
▁인물	-9.34898
동안	-9.34908
▁대해서는	-9.34948
H	-9.34979
회사	-9.34982
▁받는	-9.35029
▁사과	-9.35048
▁부분	-9.35069
▁참석	-9.35297
▁on	-9.35332
힌	-9.35351
▁차베스	-9.35362
▁압력	-9.35368
▁후세인	-9.35395
하였다	-9.35446
▁요청했다	-9.35537
▁한다는	-9.35743
중인	-9.35809
▁기지	-9.3583
▁파괴	-9.3593
업체	-9.35959
30	-9.36014
명으로	-9.36026
▁기대	-9.36058
W	-9.36059
▁EU	-9.36079
▁완전	-9.36158
라며	-9.36178
▁위성	-9.36188
ch	-9.36292
▁상대로	-9.3644
▁바란다	-9.36454
▁서부	-9.36468
시키는	-9.36485
▁기사	-9.36517
▁그들이	-9.36528
▁거부	-9.36543
un	-9.36617
갈	-9.36664
▁찾아	-9.3668
음	-9.36715
▁무역	-9.36768
▁변호사는	-9.37014
▁익명	-9.37131
▁커	-9.37147
▁수상	-9.37223
▁만들어	-9.37239
▁왕자	-9.37457
링	-9.3752
▁야후	-9.37576
▁북	-9.37608
▁예상된다	-9.37666
▁후보는	-9.37713
▁총격	-9.37783
▁집단	-9.37921
이라크	-9.37968
▁복귀	-9.3812
▁병	-9.38189
▁질문	-9.38191
▁불만	-9.38309
림	-9.38389
▁사는	-9.38508
▁이명박	-9.38681
▁귀	-9.38686
▁밝혔습니다	-9.38687
▁크게	-9.38752
▁하기	-9.38759
▁전국	-9.38764
▁감염	-9.38805
▁로마	-9.3885
▁아직까지	-9.38877
▁남한	-9.38905
▁질	-9.39
▁있지	-9.39034
책	-9.39038
▁누	-9.39098
자가	-9.39232
▁탑승	-9.39241
▁북핵	-9.39248
▁받지	-9.39454
▁죽	-9.39458
합	-9.39736
▁s	-9.3978
▁붕괴	-9.39945
먼	-9.40008
▁저장	-9.4006
▁이곳	-9.40269
▁인터뷰	-9.40303
▁책	-9.40352
상을	-9.40385
▁나온	-9.40456
되었습니다	-9.40493
▁US	-9.40501
▁사람은	-9.40557
▁접근	-9.40662
▁놓	-9.40677
입	-9.40732
자인	-9.4077
일부터	-9.40801
▁선정	-9.40837
▁설명	-9.40844
▁안정	-9.4097
▁적이	-9.41014
▁인기	-9.41059
▁하원	-9.41061
▁인수	-9.41066
▁베네수엘라	-9.41083
▁중국은	-9.41096
▁이집트	-9.41112
▁극	-9.4112
▁체	-9.41164
▁요	-9.41167
▁합니다	-9.41286
▁음식	-9.4136
▁어머니	-9.41371
▁추진	-9.41384
9	-9.41395
▁사실이	-9.41399
른	-9.41492
▁아니라고	-9.41519
▁국무장관	-9.41519
▁성폭행	-9.41529
▁따른	-9.41545
▁되어	-9.41643
범	-9.41744
▁민주주의	-9.41767
▁세력	-9.41776
▁살인	-9.4185
▁넘	-9.41856
블	-9.41911
▁사람들을	-9.41932
▁부부	-9.41984
▁정부와	-9.42008
▁되고	-9.4201
▁외교	-9.42024
▁위해서는	-9.4203
▁때까지	-9.42084
▁여론	-9.42144
태	-9.4218
0	-9.42255
▁마크	-9.42306
▁교수	-9.42308
▁기관	-9.42337
ation	-9.42364
▁머리	-9.42442
▁암살	-9.42591
▁최악	-9.42707
▁쿠바	-9.42744
▁받게	-9.42764
▁일반	-9.42794
▁나가	-9.4284
▁시민	-9.42865
▁모델	-9.43018
▁임기	-9.43061
▁신고	-9.43249
▁2001	-9.43409
격	-9.43544
▁비판	-9.43608
립	-9.43679
▁문화	-9.43718
▁차이	-9.43742
▁장면	-9.43772
랑	-9.43792
▁헌법	-9.43798
▁무장단체	-9.44011
▁매년	-9.44033
▁가졌다	-9.44072
▁상원의원이	-9.44083
▁유권자들	-9.44104
▁부모	-9.44111
리아	-9.44112
▁명령	-9.44131
▁내부	-9.44132
▁촬영	-9.44197
▁못하고	-9.44249
▁의미	-9.44279
▁선출	-9.44331
▁c	-9.44387
쿠	-9.44389
▁수색	-9.44434
▁달리	-9.44451
▁사원	-9.44454
▁진출	-9.44498
기구	-9.44629
▁긴장	-9.44684
▁공격으로	-9.44712
플	-9.44815
장이	-9.44898
▁계획이다	-9.44917
▁뿐	-9.44943
▁패	-9.45044
▁언급했다	-9.45049
▁일요일	-9.45079
측은	-9.45155
▁고용	-9.45185
▁보냈다	-9.4525
▁금	-9.4528
기로	-9.45281
▁도착	-9.45358
▁두고	-9.45362
▁강력한	-9.45519
▁허용	-9.45565
▁확인했다	-9.45624
▁목적	-9.45631
▁참가	-9.45653
▁이끄는	-9.45682
자회담	-9.45726
▁필리핀	-9.45764
▁수많은	-9.45793
▁도움이	-9.45823
▁선수들	-9.45838
▁못한	-9.45845
▁나왔다	-9.45877
▁사항	-9.45982
그는	-9.46102
리는	-9.46125
페	-9.46222
시키고	-9.46236
▁강한	-9.4626
▁권력	-9.46303
▁밝히지	-9.46388
광	-9.46396
▁동료	-9.46416
▁월요일	-9.46456
▁개혁	-9.46491
▁거대	-9.46503
▁정부에	-9.46594
담	-9.46602
st	-9.46639
▁보고서는	-9.46646
머	-9.46709
▁끝	-9.46734
▁병사	-9.46748
10	-9.46845
▁의료	-9.46914
▁오른	-9.46919
▁집중	-9.46944
▁향해	-9.47005
만한	-9.47042
자들이	-9.47062
때	-9.47064
▁마약	-9.47099
▁야	-9.47109
하기도	-9.4712
이라	-9.4714
말	-9.47148
▁파리	-9.47159
사건	-9.47187
▁구매	-9.47192
되었다고	-9.47254
▁사랑	-9.47334
만이	-9.47403
하지만	-9.47513
‘	-9.47538
▁항공기	-9.47593
ri	-9.47713
▁E	-9.47749
령	-9.47836
백	-9.47924
▁대사	-9.47927
▁상대	-9.47932
▁군대	-9.48036
▁가자지구	-9.4804
=2	-9.48099
▁사형	-9.48229
▁통신	-9.48328
다른	-9.48428
20	-9.48459
▁80	-9.48489
▁관해	-9.48658
▁흑인	-9.48752
▁긴급	-9.48761
▁임시	-9.48767
▁작년	-9.48768
▁탄	-9.48931
▁제거	-9.49171
왔다	-9.49207
단체	-9.4922
▁증시	-9.49228
씨	-9.49261
▁나머지	-9.49374
협회	-9.49438
정부	-9.49448
▁지진	-9.49539
성을	-9.4955
▁주지사는	-9.49553
▁참여	-9.4961
▁위반	-9.49629
▁대응	-9.49711
▁중에	-9.49896
빌	-9.49949
북	-9.50016
▁올랐다	-9.50154
▁되었다	-9.50166
▁사우디	-9.50224
▁상황이	-9.50235
▁주지사	-9.50257
▁막기	-9.50311
▁부상자	-9.50401
▁북한에	-9.50447
▁목숨	-9.50636
▁소재	-9.5069
500	-9.50695
▁숨지고	-9.50772
항	-9.50908
▁축구	-9.51141
흐	-9.51205
▁허가	-9.51242
▁다음달	-9.51296
경기	-9.51322
▁1000	-9.5164
▁교회	-9.51748
은행	-9.51792
총	-9.51913
▁교	-9.51938
▁뇌	-9.51981
▁희생자	-9.51985
▁국방장관	-9.51987
▁전기	-9.52098
▁J	-9.52193
▁되지	-9.52257
▁전력	-9.52385
▁비밀	-9.52403
▁유권자	-9.52442
있다	-9.52443
▁직원들	-9.5245
▁주장하고	-9.52567
▁어느	-9.5257
▁칸	-9.52593
▁생	-9.52616
ID	-9.52617
▁관광객	-9.52649
▁아내	-9.52649
▁제임스	-9.52681
주의	-9.52783
▁접	-9.52868
시키기	-9.52935
▁사람들에게	-9.52975
▁받았다고	-9.53101
▁따라	-9.5312
▁소리	-9.53152
하다고	-9.5316
▁후에	-9.53248
▁학생들	-9.53257
▁가능한	-9.53292
▁제기	-9.5345
리스	-9.53452
▁만큼	-9.53461
대의	-9.53509
▁넘는	-9.53519
▁업체	-9.53545
리자	-9.5363
▁이라크전	-9.53692
회의	-9.5374
국가	-9.53757
▁착륙	-9.5379
▁질문에	-9.53817
▁외무부	-9.53861
▁출발	-9.5387
▁전시	-9.53948
▁제출	-9.54014
▁충격	-9.5412
▁있다며	-9.54206
▁중앙	-9.54293
▁시리아	-9.54307
스타	-9.54347
▁정도로	-9.54471
▁적어도	-9.5452
▁수요일	-9.54571
▁대비	-9.54581
샤	-9.54629
▁잠	-9.54643
되면서	-9.54676
▁끝에	-9.54699
▁작업을	-9.54751
▁것이라	-9.54797
엘	-9.54888
ic	-9.55192
▁해리	-9.55223
▁곳에서	-9.55239
▁여당	-9.55267
▁게	-9.55279
▁되	-9.55286
▁칼	-9.55314
▁쿠	-9.55448
여명이	-9.55479
앙	-9.55487
▁시기	-9.55594
▁어떠한	-9.55848
▁패배	-9.55867
▁선두	-9.55888
▁허리케인	-9.55941
랜드	-9.55946
▁고통	-9.5603
▁O	-9.56083
▁높이	-9.56101
▁교전	-9.56129
▁만들	-9.56223
▁수십	-9.56305
▁혼란	-9.56341
▁접촉	-9.56522
▁자체	-9.56564
▁남북	-9.56612
▁여성이	-9.56631
름	-9.56636
re	-9.56644
▁입고	-9.56659
▁퍼	-9.56698
▁보여주	-9.56805
▁항의	-9.56881
▁이래	-9.56882
▁R	-9.56895
▁수천명	-9.56905
▁발생했다고	-9.56967
레이	-9.57054
▁시행	-9.57057
▁이달	-9.57168
▁일자리	-9.57223
▁출마	-9.57226
세기	-9.57338
▁집회	-9.57346
▁임명	-9.57414
▁교통	-9.57424
기간	-9.57543
클	-9.57632
▁선언	-9.57667
▁심장	-9.57716
▁유명한	-9.57723
▁수천	-9.57838
▁확대	-9.57875
▁압박	-9.57879
▁삶	-9.57952
▁자리	-9.5796
▁유명	-9.58002
존	-9.58056
▁팬들	-9.5812
▁신원	-9.5815
▁합의했다	-9.5816
▁발생해	-9.5817
5000	-9.58211
▁제조	-9.58229
5%	-9.58239
▁300	-9.58323
침	-9.58394
겠다	-9.58422
▁수행	-9.58479
▁전문가	-9.58506
▁씨	-9.58507
▁캐	-9.58522
▁노동	-9.58631
▁35	-9.58636
악	-9.58778
▁사진을	-9.58782
▁미군이	-9.58838
▁종교	-9.58879
▁누구	-9.58895
▁사상	-9.58945
▁세금	-9.59042
▁등의	-9.59115
▁피해자	-9.59202
▁영	-9.59209
했다는	-9.59238
▁어려움	-9.59252
▁찰스	-9.59286
런	-9.59298
▁수백	-9.59372
밀	-9.5944
▁아주	-9.59499
▁오바마가	-9.59514
▁표현	-9.59585
▁수익	-9.59703
▁행	-9.59709
▁비슷	-9.59739
▁관광	-9.59825
▁쓰	-9.59849
▁be	-9.59867
▁외무장관	-9.59944
ra	-9.60018
▁존스	-9.6004
▁대해서	-9.60063
관계	-9.60092
▁승객	-9.60129
대가	-9.60164
▁마음	-9.60227
손	-9.60276
▁UN	-9.60312
▁지도자인	-9.60315
▁인사	-9.60398
▁병원에	-9.60423
렸	-9.60425
▁총기	-9.60444
▁노조	-9.60551
지도	-9.60598
▁대표는	-9.60617
▁로켓	-9.60631
▁밀	-9.60647
▁파견	-9.60653
▁체포됐다	-9.60655
▁소말리아	-9.6074
▁대화	-9.60755
▁것인지	-9.60793
▁백	-9.60912
▁지도자들	-9.60943
▁추락	-9.60979
▁사이트	-9.61006
▁작업	-9.61047
▁주민들이	-9.61208
▁현장	-9.61209
▁그리스	-9.61236
▁해야	-9.61255
것	-9.61279
▁투	-9.61347
▁않았지만	-9.61348
▁국립	-9.61355
▁왕	-9.6138
▁유죄	-9.61415
▁자국	-9.61431
▁가질	-9.61475
▁연장	-9.61533
▁감사	-9.61594
▁고문	-9.61601
▁나오	-9.61718
▁소비자	-9.61727
▁공군	-9.61733
▁마리	-9.61743
▁해제	-9.61745
▁능력	-9.61782
▁이라크에	-9.618
▁대중	-9.61908
▁상당	-9.61928
▁시간이	-9.61983
▁언론은	-9.62032
▁판	-9.62041
▁연구소	-9.62092
▁숨진	-9.62093
월부터	-9.62135
▁적용	-9.6215
축	-9.62243
안을	-9.62362
▁카운티	-9.62424
▁군인	-9.62476
맨	-9.62487
▁사무실	-9.62685
la	-9.62688
▁보여	-9.62693
▁경제적	-9.62713
sp	-9.62722
v	-9.62764
▁게이츠	-9.62772
▁절차	-9.62795
받	-9.62918
▁검토	-9.62962
센	-9.63088
▁폭력사태	-9.63089
▁카메라	-9.63154
▁목표로	-9.63213
▁관련해	-9.63348
▁한반도	-9.63384
▁반대하는	-9.63428
▁걱정	-9.63491
싼	-9.63491
▁말레이시아	-9.63491
▁휴대폰	-9.63492
▁그것은	-9.63548
▁아베	-9.63621
▁프로젝트	-9.63627
▁대법원	-9.63637
했는데	-9.63649
▁사건은	-9.63731
▁트럭	-9.63736
▁강력	-9.63774
▁취소	-9.63819
▁전문	-9.63876
빈	-9.639
▁보이는	-9.64079
겠다고	-9.64089
▁테	-9.641
▁최고의	-9.64153
▁청와대	-9.64216
▁내무부	-9.64222
▁아무런	-9.64226
▁여왕	-9.64227
▁방문한	-9.64232
▁장소	-9.64246
▁당선인	-9.64268
▁물론	-9.64268
▁민	-9.64278
▁오래	-9.643
창	-9.64514
▁관계자들	-9.64628
환	-9.64638
알	-9.64656
취	-9.64696
▁시카고	-9.64753
▁가까	-9.64822
으로서	-9.64854
▁젊은	-9.64876
였습니다	-9.64907
▁구속	-9.64934
▁뛰어	-9.64974
▁동결	-9.64974
▁항상	-9.64977
▁넣	-9.64995
스러운	-9.65001
▁순간	-9.65012
다면	-9.65041
▁영어	-9.65092
▁경찰관	-9.65255
▁위치	-9.6529
▁등을	-9.65298
▁삼	-9.65322
누	-9.65345
▁현대	-9.65366
▁허	-9.65399
▁개의	-9.65426
▁약물	-9.65529
이것은	-9.65587
▁싶다	-9.65628
▁목요일	-9.65668
▁마드리드	-9.65681
▁들고	-9.65686
▁신화통신	-9.65717
중국	-9.65776
▁시작된	-9.6582
▁미래	-9.65833
▁수석	-9.65942
▁법안을	-9.65955
▁과정	-9.66101
The	-9.66209
▁보장	-9.66241
▁운행	-9.66426
ion	-9.66442
▁밝혀지지	-9.66466
▁선거에서	-9.66491
▁지역을	-9.66524
▁박물관	-9.66654
▁폐	-9.66743
▁놓고	-9.66826
▁촉구	-9.66967
향	-9.66994
규	-9.67049
▁창	-9.6708
순	-9.67118
▁신뢰	-9.67165
▁국제사회	-9.67187
▁법률	-9.67189
▁구호	-9.67255
▁만약	-9.67258
▁전략	-9.6727
▁단계	-9.67271
▁따	-9.67291
▁도중	-9.67335
▁기억	-9.67363
션	-9.67497
▁당했다	-9.67503
▁도전	-9.67517
ro	-9.67568
자는	-9.67616
준	-9.67725
▁실패	-9.67767
▁고려	-9.67788
▁이전에	-9.67788
▁분쟁	-9.67794
▁죽음	-9.67846
▁없어	-9.67889
▁나타나	-9.6792
▁수니파	-9.67921
▁이수지	-9.67931
▁집권	-9.67949
▁판단	-9.67961
▁있는지	-9.67962
▁술	-9.68044
▁좀	-9.68062
▁효과	-9.68193
▁있음을	-9.68215
▁체포했다	-9.68241
▁90	-9.68317
▁회담에서	-9.68322
장에서	-9.68515
▁오르	-9.68574
▁미군은	-9.6862
▁조건	-9.68635
▁얼굴	-9.68678
▁연속	-9.68704
et	-9.6872
이지만	-9.6875
율	-9.68776
▁소식	-9.68798
로써	-9.68799
▁태	-9.68799
▁평	-9.68812
▁동시	-9.68936
▁베컴	-9.68957
)/	-9.68988
▁전자	-9.69084
술	-9.69104
되	-9.69115
▁가수	-9.69127
드는	-9.69224
칠	-9.6926
#	-9.69285
7%	-9.69318
▁만든	-9.69371
▁전까지	-9.69382
▁물질	-9.69404
▁올메르트	-9.6944
▁연결	-9.69455
▁애플	-9.69456
분기	-9.69493
▁저지	-9.69501
▁순	-9.69514
▁잉글랜드	-9.69565
▁영상	-9.69622
▁기회	-9.69669
▁과학	-9.69711
▁윌리엄	-9.6974
▁장기	-9.69762
▁지지자들	-9.6977
▁수정	-9.69801
▁정말	-9.6993
사는	-9.69951
▁도쿄	-9.6998
▁연설에서	-9.6999
별	-9.70005
▁예측	-9.70122
▁차기	-9.70148
문제	-9.7016
움	-9.70169
▁사상자	-9.70233
▁분노	-9.70276
마일	-9.7039
▁망명	-9.70435
▁연합군	-9.70498
▁자주	-9.70548
▁비상	-9.70637
패	-9.70701
▁I	-9.70742
▁이해	-9.70766
방송	-9.70791
▁겪고	-9.70985
▁직후	-9.70999
at	-9.7103
▁마무리	-9.71033
▁공장	-9.71045
▁홍보	-9.71067
▁대형	-9.71092
▁환영	-9.71144
▁급	-9.71154
▁당선	-9.71189
▁부정	-9.71378
변	-9.7138
냐	-9.7139
▁주의	-9.71413
▁곳에	-9.71438
▁한국은	-9.71446
▁제시	-9.71476
▁자녀	-9.71489
▁씨는	-9.7159
씩	-9.71637
▁그들	-9.71641
섬	-9.71688
▁버지니아	-9.71744
▁블레어	-9.71766
ment	-9.71788
▁핵심	-9.71862
▁분석	-9.71875
▁옷	-9.71973
▁주민들은	-9.71985
▁소녀	-9.72011
▁시대	-9.72087
▁사기	-9.72181
기가	-9.72343
능	-9.72369
착	-9.72416
▁re	-9.72427
만명이	-9.72485
▁성인	-9.72517
▁고양이	-9.72554
▁주가	-9.72606
▁근무	-9.72607
수가	-9.72741
▁근	-9.72771
▁벤	-9.72817
▁소지	-9.72832
▁포기	-9.7287
▁마감	-9.72876
스터	-9.73027
▁영국의	-9.73049
▁전통	-9.73055
▁가정	-9.73127
▁집행	-9.73147
▁가능	-9.7321
▁용	-9.73215
시장	-9.73241
한국	-9.7329
▁그러	-9.73331
▁맞아	-9.73347
▁스포츠	-9.73347
▁협의	-9.73347
▁스스로	-9.7335
▁비상사태	-9.73351
▁몇몇	-9.73355
▁머물	-9.73364
▁원자로	-9.73372
▁산불	-9.7338
▁약간	-9.73381
▁b	-9.73402
▁나토	-9.73406
▁군부	-9.73417
▁병원에서	-9.73533
▁때문	-9.73553
▁이란이	-9.73706
▁프리	-9.73755
▁수감	-9.73765
랜	-9.73952
▁격	-9.73997
▁보이고	-9.74005
▁관계자	-9.74008
볼	-9.74066
했는지	-9.74102
▁빠른	-9.74147
▁이밖에	-9.74147
▁탁신	-9.74148
▁처벌	-9.74152
▁BBC	-9.74153
▁빠르	-9.74154
▁감축	-9.74158
▁돌아가	-9.7419
해졌다	-9.74266
탈	-9.74372
▁떠나	-9.74405
까	-9.74428
▁실시된	-9.74461
슈	-9.74489
70	-9.74541
▁단지	-9.74623
▁보안관	-9.7466
▁완화	-9.74661
▁차지했다	-9.74675
▁실수	-9.7469
올	-9.74731
▁투입	-9.74817
▁문서	-9.74938
▁높다	-9.74954
▁떨어져	-9.74954
▁협정	-9.74954
▁일어난	-9.74958
▁고속도로	-9.74965
▁절반	-9.74967
함으로써	-9.74969
▁조금	-9.75021
▁않	-9.75184
as	-9.75254
▁증가했다	-9.75264
▁나무	-9.75376
▁넘어	-9.75696
철	-9.75748
컵	-9.7576
joins	-9.75764
겐	-9.75767
▁스피어스	-9.7577
▁오랜	-9.75804
▁나타냈다	-9.75825
▁받기	-9.75833
▁조작	-9.75842
▁알려지	-9.75866
cat	-9.75866
▁내각	-9.75883
200	-9.75911
▁발생할	-9.75947
▁북한과	-9.75949
▁치안	-9.7595
▁하며	-9.75956
▁의원이	-9.7598
▁성적	-9.76024
▁코소보	-9.76043
▁이미지	-9.76046
▁아마	-9.76239
▁지배	-9.76247
▁중이다	-9.7635
월까지	-9.76393
▁부인했다	-9.764
▁윌리엄스	-9.76482
▁국가들	-9.76504
▁보기	-9.76519
▁대책	-9.76534
딘	-9.76586
▁찾기	-9.76586
▁크리스토퍼	-9.76586
▁할리우드	-9.76586
▁민병대	-9.76587
▁가량	-9.76627
▁낮은	-9.7663
하길	-9.76635
▁소식을	-9.76638
2%	-9.7665
▁고래	-9.76651
▁중심	-9.76656
▁이와같	-9.76671
▁대화를	-9.76699
▁매일	-9.7676
▁사망했으며	-9.76789
▁초기	-9.7679
▁않겠다	-9.76895
▁실제	-9.7695
▁폭풍	-9.76958
▁글	-9.76991
▁그에게	-9.7709
▁동의	-9.77122
염	-9.77143
▁보낸	-9.77196
몬	-9.77201
명에	-9.7722
▁뉴	-9.77352
cnn	-9.77411
▁개봉	-9.77429
▁70	-9.77435
▁프라이머리	-9.77439
▁확실히	-9.77455
힐	-9.77466
▁노래	-9.77487
▁의혹	-9.77527
▁폭	-9.77552
▁원조	-9.77553
▁둔	-9.77555
▁의심	-9.77579
▁오랫동안	-9.77611
▁알게	-9.7765
▁국	-9.77656
▁Korean	-9.77668
▁유로	-9.77727
▁보좌관	-9.77812
▁집에서	-9.77915
▁위기에	-9.7793
▁말하고	-9.77955
▁약속했다	-9.7806
▁지불	-9.78062
U	-9.78068
킬	-9.7807
니다	-9.78095
▁제외	-9.78096
▁상황에서	-9.78147
▁그렇게	-9.78246
▁목	-9.78272
▁개입	-9.78276
▁등록	-9.78277
글	-9.78283
▁대표팀	-9.78301
활동	-9.78309
달러를	-9.7832
▁고든	-9.78348
▁풀	-9.78436
족	-9.78525
▁후반	-9.78538
졌	-9.78546
▁차지	-9.78574
▁이용해	-9.78583
견	-9.78592
례	-9.7865
▁소장	-9.78665
▁소식통은	-9.78696
▁필	-9.78827
▁참석한	-9.78854
ht	-9.78875
백만	-9.7894
▁후보에	-9.78964
▁맺	-9.78967
주년	-9.78977
▁나섰다	-9.79086
▁속에	-9.79115
▁다쳤다	-9.79119
▁화성	-9.7916
▁원유	-9.79179
▁네덜란드	-9.79182
▁수백명	-9.79252
▁민간	-9.79267
▁기자회견	-9.79305
▁확산	-9.79311
▁단어	-9.79342
▁후보로	-9.79373
관리	-9.79399
▁모습	-9.79417
▁난민	-9.79468
들도	-9.79488
▁블로그에	-9.79533
▁월드컵	-9.79609
▁의한	-9.79644
▁경찰과	-9.79659
인지	-9.79667
▁p	-9.79669
▁전반	-9.79721
▁찬성	-9.79772
평	-9.79835
://	-9.79933
▁무가베	-9.79935
▁먼저	-9.79941
▁하워드	-9.79942
▁담배	-9.79962
is	-9.79969
애	-9.79973
▁바다	-9.79978
tp	-9.79983
▁2009	-9.80065
사를	-9.80088
▁휴가	-9.80161
▁콜	-9.80195
▁대통령에게	-9.80255
▁중국이	-9.80255
▁정신	-9.80277
▁처	-9.80315
▁방해	-9.80384
북한	-9.80395
▁보건	-9.80398
40	-9.80439
▁남성이	-9.80448
▁합	-9.80501
▁색	-9.80617
▁법적	-9.80658
새	-9.80679
▁브	-9.80716
▁기회를	-9.80749
▁작가	-9.80759
▁박사	-9.80774
code	-9.80788
▁찾는	-9.80789
▁캠프	-9.80789
Total	-9.80789
▁있었으며	-9.80798
▁배럴	-9.80801
▁철회	-9.80809
▁사례	-9.8083
돌	-9.80861
el	-9.80899
▁크리스마스	-9.80903
연합	-9.8092
▁대체	-9.80921
낼	-9.80926
▁증명	-9.80955
3%	-9.80969
▁150	-9.80972
▁연구진	-9.81056
▁목소리	-9.81067
▁구성된	-9.813
▁한미	-9.81338
▁위험한	-9.81371
▁날씨	-9.81398
▁못할	-9.81432
▁비자	-9.815
▁사용하는	-9.81567
었습니다	-9.81645
▁알려져	-9.81655
▁외교부	-9.81664
▁조정	-9.81669
▁교체	-9.81682
▁연루	-9.81705
영화	-9.81717
었으며	-9.81777
▁우크라이나	-9.81792
▁지급	-9.81797
▁#	-9.81821
▁관	-9.81878
▁다이애나	-9.81994
▁대표단	-9.82006
▁긴	-9.82007
하려고	-9.82012
▁듯	-9.82153
ate	-9.82163
▁위원장은	-9.82208
60	-9.82262
▁측	-9.82312
슬	-9.82324
▁시작됐다	-9.82362
▁집계	-9.82452
▁침체	-9.82521
▁모하메드	-9.82522
▁주에서	-9.82535
▁진입	-9.82538
▁1999	-9.82549
▁400	-9.82549
▁손실	-9.82583
이었다고	-9.82594
▁기후	-9.82601
됐지만	-9.82654
지르	-9.82708
시킨	-9.82722
▁인정했다	-9.82788
혈	-9.8281
자들	-9.82851
▁실시한	-9.82886
▁의장	-9.82933
id	-9.82941
▁무사	-9.82952
조치	-9.83009
▁니콜라	-9.83009
▁홍수	-9.83049
ers	-9.83118
▁빨리	-9.83397
▁정확한	-9.83397
▁분위기	-9.83406
▁질병	-9.83424
트는	-9.8348
▁광	-9.83501
▁대피	-9.83567
▁NASA	-9.83587
▁영향력	-9.8361
▁말한	-9.83646
▁본부	-9.83657
▁돼	-9.83682
▁조종사	-9.83701
▁여성들	-9.83709
▁재정	-9.83724
▁그린	-9.83731
▁45	-9.83734
▁하락했다	-9.84007
▁않기	-9.84011
▁당선자	-9.84062
▁기념	-9.8408
▁웹사이트에	-9.84124
us	-9.84178
▁테러로	-9.84202
80	-9.84233
쯤	-9.84282
▁부동산	-9.84283
▁엄마	-9.84283
▁규제	-9.84285
▁스티브	-9.84287
▁부패	-9.8432
▁그중	-9.84345
▁도착했다	-9.8441
▁현장에	-9.8442
▁얻었다	-9.84429
▁선박	-9.84434
막	-9.84443
▁위해서	-9.84451
턴	-9.84457
전에	-9.84471
▁프로	-9.84495
se	-9.84515
▁시상식	-9.8455
달하는	-9.84553
마다	-9.84579
▁기자는	-9.84608
▁생명	-9.84711
킨	-9.84732
▁들었다	-9.84764
스가	-9.84972
람	-9.84982
▁있는데	-9.85049
▁저녁	-9.85175
▁콘돌	-9.85179
▁장난감	-9.8518
▁태풍	-9.8518
▁사무총장은	-9.85181
▁추정	-9.85194
▁경계	-9.85197
▁바람	-9.85217
▁보이지	-9.85254
ir	-9.85267
▁들어가	-9.85428
▁정상회담	-9.85534
▁태도	-9.85558
▁받았	-9.85567
▁왜	-9.85589
▁32	-9.85595
▁작성	-9.85608
▁아부	-9.8563
였다고	-9.85662
시설	-9.85724
▁시민들	-9.85747
▁가격이	-9.85757
▁증언	-9.85868
▁유세	-9.85877
ce	-9.85906
▁상징	-9.86012
▁문제로	-9.86053
웰	-9.86057
▁유사	-9.86117
▁아바스	-9.86134
▁이웃	-9.86147
▁지도부	-9.86185
▁당한	-9.86369
▁직	-9.8639
▁올리	-9.86482
▁청	-9.86625
▁취임	-9.86647
왔	-9.86652
▁가족들	-9.86652
▁임	-9.86742
▁강도	-9.86755
▁신청	-9.86796
▁살해한	-9.86823
개월간	-9.86937
▁밝혀	-9.86968
▁토요일	-9.86986
2009.06	-9.86987
▁네팔	-9.86993
▁최소한	-9.87005
▁축하	-9.8701
▁승무원	-9.87026
센트	-9.87104
었다고	-9.87136
▁대상	-9.87215
▁방어	-9.87227
▁운전	-9.87249
▁않으면	-9.87281
정책	-9.87352
▁떨어졌다	-9.8736
장에	-9.87388
항공	-9.87516
▁전망이	-9.87547
▁아직도	-9.87641
▁울	-9.8769
▁자신들이	-9.87762
경찰	-9.8777
▁FBI	-9.87824
롭	-9.87852
▁피터	-9.8787
▁징역	-9.87883
▁빠져	-9.87893
▁점령	-9.87933
▁서명	-9.88013
▁지출	-9.8803
▁반발	-9.88049
▁입국	-9.88052
▁땅	-9.88053
▁테이프	-9.881
▁기타	-9.88124
▁크리스	-9.88157
왕	-9.88172
▁아파트	-9.88201
▁자연	-9.88343
▁인질들	-9.88371
▁시리즈	-9.88378
인들이	-9.88381
자로	-9.88527
▁아랍	-9.88555
▁일본은	-9.88589
경제	-9.88657
▁진정	-9.88658
▁억류	-9.88694
▁내린	-9.88711
곤	-9.88794
▁슈	-9.88804
엄	-9.8881
▁쿠르드	-9.88823
젠	-9.88829
▁주는	-9.88843
▁결론	-9.88858
▁주로	-9.88887
▁형성	-9.88894
▁소비	-9.88916
▁사용할	-9.88961
▁평양	-9.88996
극	-9.89013
▁케	-9.89017
ent	-9.89041
▁만들었다	-9.89083
주간	-9.89121
▁향	-9.89128
▁지휘	-9.89192
거래	-9.89231
▁숨	-9.89506
▁굴	-9.89528
▁교황	-9.89561
▁상황에	-9.89618
같은	-9.89648
위로	-9.89701
▁구입	-9.89745
▁준	-9.89747
렛	-9.89763
▁쉽게	-9.89764
▁침해	-9.89769
▁깊	-9.89797
▁타격	-9.89799
ur	-9.89845
▁즉시	-9.89862
▁힐튼	-9.89919
4%	-9.89936
표를	-9.89938
틀	-9.90027
위에	-9.90068
▁요구하는	-9.9015
▁놀라	-9.90179
▁복제	-9.90229
인들은	-9.90239
▁살아	-9.90274
▁그것	-9.90291
드리	-9.90311
▁전문가들	-9.90314
▁요구한	-9.90445
▁움직임	-9.90479
상태	-9.90557
▁사령관	-9.90598
▁오하이오	-9.90638
빙	-9.90662
州	-9.90707
▁수반	-9.90711
▁한번	-9.90719
▁유럽연합	-9.90734
▁기준	-9.90745
▁설립	-9.90765
▁수용	-9.90819
▁재산	-9.90848
▁한국과	-9.90915
▁의문	-9.90926
▁결과가	-9.90958
▁웹	-9.90978
낸	-9.91025
테러	-9.91089
▁의장은	-9.91122
오바마	-9.91123
▁등이	-9.91184
지에	-9.91244
▁것처럼	-9.91265
성이	-9.91271
▁팬	-9.91296
필드	-9.91356
▁쉬	-9.91403
op	-9.91409
▁진행되	-9.91444
▁모른다	-9.91588
▁벨	-9.91588
▁엘리자베스	-9.91659
▁남북한	-9.91687
자금	-9.91756
사가	-9.9177
▁토니	-9.91797
▁중요하다	-9.91843
▁속에서	-9.91853
▁우주선	-9.91858
▁벌금	-9.9187
▁방식	-9.91992
▁선포	-9.92162
▁상품	-9.92207
▁w	-9.92216
▁오픈	-9.92231
▁유리	-9.92395
▁동맹	-9.92474
▁공화당의	-9.92546
▁토론	-9.92584
▁협조	-9.92621
▁활용	-9.92621
▁론스타	-9.92625
▁구글	-9.92649
▁끝난	-9.92657
▁심각	-9.92657
▁육군	-9.92674
▁잭슨	-9.9268
▁장치	-9.92696
▁소프트웨어	-9.92706
▁대출	-9.92706
들로	-9.92708
▁통화	-9.92723
▁현장에서	-9.92752
▁이르는	-9.92777
▁자산	-9.92778
▁신용	-9.92787
th	-9.92803
▁소년	-9.92852
▁대북	-9.9286
▁해당	-9.92864
▁가는	-9.92866
폭	-9.92909
▁회담은	-9.92945
▁세르비아	-9.92993
▁범인	-9.92997
▁매장	-9.93006
▁총선에서	-9.93052
푸	-9.93057
▁스위스	-9.93179
베이	-9.93247
il	-9.93274
▁해고	-9.93296
▁실제로	-9.93298
▁시위자들	-9.93418
▁되면	-9.9342
▁""	-9.93439
▁대처	-9.93459
자와	-9.93503
▁밝	-9.93507
▁영국군	-9.93534
▁찬	-9.93549
균	-9.93552
레스	-9.93567
▁김정일	-9.93592
▁핵실험	-9.93596
▁페르베	-9.93602
▁갖추	-9.93603
▁즉	-9.93618
▁축제	-9.93632
▁자격	-9.93635
함에따라	-9.93686
▁예방	-9.9374
▁우선	-9.93742
▁개정	-9.93876
▁조사하고	-9.93877
25	-9.93906
▁못하	-9.93912
▁기구	-9.93913
▁대사는	-9.93971
▁베이	-9.93999
▁어린	-9.94022
▁임신	-9.94072
습	-9.94097
ies	-9.94186
▁연락	-9.94263
▁잘못	-9.94303
▁송	-9.9436
▁h	-9.94411
▁is	-9.94414
대표	-9.94452
▁학	-9.94483
ol	-9.94501
셔	-9.94547
덴	-9.94549
▁동원	-9.9455
;	-9.94572
▁사이클론	-9.94579
▁1997	-9.9459
▁신속	-9.94642
▁귀국	-9.94645
▁공공	-9.94671
▁결혼식	-9.94695
▁공식적으로	-9.94704
▁아래	-9.94708
▁이틀	-9.94737
▁동물원	-9.94769
▁소유	-9.94828
ve	-9.94868
▁지도	-9.94951
찬	-9.95016
J	-9.95069
▁지연	-9.95195
▁추방	-9.95197
▁요구를	-9.95219
▁법안	-9.95257
▁지지자	-9.95316
▁클럽	-9.95327
▁심리	-9.95335
▁갖	-9.95337
▁일부는	-9.95364
▁체포된	-9.95383
▁모습이	-9.95451
▁주고	-9.95458
▁자살폭탄테러	-9.95557
▁North	-9.95562
▁뉴질랜드	-9.95562
▁매들린	-9.95562
▁헤럴드	-9.95562
▁1998	-9.95582
우스	-9.95669
▁영국에서	-9.95707
으면	-9.95738
▁아르헨티나	-9.95774
▁총리와	-9.958
▁구체적인	-9.95823
▁양측	-9.95864
▁걸어	-9.95873
▁성공했다	-9.95879
▁나와	-9.95957
▁마치	-9.95964
쳤다	-9.95991
▁농	-9.96006
▁인식	-9.96025
기관	-9.96042
▁크	-9.96047
시키	-9.96135
▁경험	-9.96139
었던	-9.96214
▁인하	-9.96422
▁혹	-9.96502
▁포함되어	-9.96541
▁CBS	-9.96562
▁드러났다	-9.96562
했	-9.96564
▁있으나	-9.96573
▁가입	-9.96613
기에	-9.96626
▁의료진	-9.96638
▁수용소	-9.9664
▁나달	-9.96652
▁지지하는	-9.96666
▁압둘라	-9.96679
▁올렸다	-9.96687
▁화	-9.96716
▁대단	-9.96747
▁예산	-9.96809
▁성화	-9.96811
한다면	-9.96922
▁의도	-9.96993
▁경매	-9.97032
필	-9.97046
▁킹	-9.97103
▁중이라고	-9.97228
▁중국과	-9.97296
▁길이	-9.97328
서는	-9.97363
▁포드	-9.97546
▁언제	-9.9755
좌	-9.97561
▁얘기	-9.97572
▁캠페인	-9.97572
▁변경	-9.97623
▁응	-9.97639
▁통치	-9.97675
▁신경	-9.97678
▁강경	-9.9769
▁회담에	-9.97706
▁이곳에서	-9.97716
▁손상	-9.97728
였으며	-9.97952
황	-9.98032
▁좋아	-9.98118
▁달성	-9.98139
만큼	-9.98201
▁그와	-9.98331
▁좋지	-9.98592
▁케네디	-9.98592
▁에이즈	-9.98599
▁루이스	-9.98602
▁주인공	-9.98611
▁폭행	-9.98612
▁독	-9.98613
▁불참	-9.98614
▁민주화	-9.98622
kg	-9.98623
▁경선에서	-9.98625
▁만드는	-9.98648
▁실행	-9.98653
▁보수	-9.98681
당한	-9.98687
▁지수는	-9.98705
▁지진으로	-9.98707
▁싱가포르	-9.98708
▁구제	-9.98732
▁리버풀	-9.98735
▁레이	-9.98797
▁지적	-9.98829
▁소개	-9.98852
▁포함해	-9.98857
▁학대	-9.98876
▁곳으로	-9.98902
▁충분	-9.9893
▁형	-9.98938
▁안보리	-9.99067
▁투자자들	-9.9908
둔	-9.99097
들어	-9.99102
▁주석	-9.9915
▁대부분은	-9.9916
▁이혼	-9.99369
▁역	-9.99377
▁스티븐	-9.99382
▁휴	-9.99479
릭	-9.99508
▁부문	-9.99538
▁최신	-9.9958
▁몰	-9.99585
▁맞서	-9.99623
▁우라늄	-9.99623
▁드라마	-9.99625
▁DNA	-9.99626
▁벌어진	-9.99629
▁음반	-9.99638
▁않도록	-9.99641
▁1980	-9.99675
▁반정부	-9.99681
▁행진	-9.99696
▁맨체스터	-9.99819
▁열린우리당	-9.99819
ot	-9.99889
▁진술	-9.99996
▁테러가	-10.0008
▁받	-10.0012
회사인	-10.0023
벌	-10.0027
▁터키군	-10.003
▁미국에	-10.0032
계획	-10.0032
▁요구하고	-10.0033
▁수백만	-10.0034
▁터	-10.004
▁경기에	-10.0043
느	-10.0044
▁휘발유	-10.0066
▁페일린	-10.0067
▁첼시	-10.0067
▁가득	-10.0067
▁질환	-10.0068
▁음모	-10.0069
랄	-10.0072
▁벌인	-10.0073
▁때문이다	-10.0075
▁집에	-10.0077
대에	-10.008
▁포르투갈	-10.0081
▁잔해	-10.0081
▁자세	-10.0084
▁저는	-10.0084
▁장식	-10.0094
▁장관이	-10.0094
▁유치	-10.0095
▁언급하지	-10.0101
린다	-10.0112
▁중에는	-10.0112
▁회담이	-10.0117
▁공개했다	-10.012
x	-10.0133
▁트	-10.0134
숙	-10.0135
▁조사에서	-10.0139
EU	-10.0141
▁펜실베이니아	-10.0157
스와	-10.0159
▁MS	-10.0165
닝	-10.0169
▁평화적	-10.0171
▁무릎	-10.0172
▁믿고	-10.0172
▁훨씬	-10.0172
죠	-10.0172
▁국제유가	-10.0172
▁향후	-10.0173
▁1990	-10.0175
▁휴전	-10.0175
▁회원국	-10.0183
▁거절	-10.0184
▁장비	-10.0186
▁베트남	-10.0189
▁전면	-10.0197
▁문제는	-10.0204
▁해결하기	-10.0206
▁용의자들	-10.0206
▁공원	-10.0207
▁폐지	-10.0212
▁250	-10.0216
냈다	-10.0225
시아	-10.0226
▁지시	-10.0234
학교	-10.0234
▁불안	-10.0235
▁희생자들	-10.0239
봉	-10.024
검	-10.0243
▁거주하는	-10.0256
라운드	-10.0256
▁속도	-10.0257
▁협회	-10.0266
려는	-10.0268
▁낮	-10.0276
▁샌프란시스코	-10.0278
▁페더러	-10.0278
주일	-10.0278
▁로봇	-10.0278
▁운항	-10.0279
▁밀란	-10.0281
▁묘사	-10.0281
▁영토	-10.0283
▁이들이	-10.0284
▁예정이며	-10.029
▁추적	-10.0294
▁외부	-10.0302
▁목격자들	-10.0304
▁악화	-10.0308
ly	-10.031
19	-10.0312
6%	-10.0317
부시	-10.032
▁붙	-10.0322
▁지하	-10.0325
▁한국군	-10.0325
렉	-10.0329
▁주간	-10.0329
ist	-10.0337
▁학생들이	-10.0341
▁단체는	-10.0341
척	-10.0352
▁워싱턴에서	-10.0357
▁불리는	-10.036
오늘	-10.036
▁주장하는	-10.0367
▁편지	-10.037
▁방문했다	-10.0376
!	-10.0386
▁밖으로	-10.0386
▁콘서트	-10.0386
▁검색	-10.0386
▁반기문	-10.0386
▁맨유	-10.0387
▁무대	-10.0387
▁나쁜	-10.0387
▁생존자	-10.0388
▁선거운동	-10.0389
▁폭우	-10.039
▁대결	-10.0392
되면	-10.0393
▁향하	-10.0398
▁치르	-10.0411
겨	-10.0413
개발	-10.0425
▁이것이	-10.0429
텔	-10.043
▁랭킹	-10.0431
▁전개	-10.0438
률	-10.0439
▁시절	-10.0439
TV	-10.0452
▁기본	-10.0453
▁방문할	-10.0455
▁푸	-10.0462
▁0	-10.0467
▁기독교	-10.0469
▁노동자	-10.0476
▁내에	-10.0479
▁방지	-10.0486
▁아카데미	-10.049
▁며칠	-10.0492
▁진행된	-10.0493
▁온난화	-10.0494
▁세계대전	-10.0494
▁금요일	-10.0494
▁이메일	-10.0495
▁접속	-10.0497
▁둘러	-10.0497
▁소환	-10.0498
▁입양	-10.0499
▁방법으로	-10.0505
▁밑	-10.0507
▁South	-10.0509
all	-10.0512
▁계획에	-10.0514
군이	-10.0515
▁잃었다	-10.0518
▁실종	-10.0521
▁하다	-10.0522
▁쥐	-10.0527
▁바그다드에서	-10.0529
▁충분한	-10.0551
▁슬	-10.0551
▁당선인은	-10.0555
▁장애	-10.0557
▁잡지	-10.056
▁목격자	-10.0561
▁짐	-10.0561
▁심슨	-10.0563
▁것보다	-10.0568
슨은	-10.0575
듯	-10.0581
▁정부군	-10.0583
▁회사들	-10.0585
▁의원들은	-10.0598
▁생각하고	-10.0602
멘	-10.0603
닉	-10.0604
▁특파원	-10.0604
현지시각	-10.0604
▁9.11	-10.0604
▁영변	-10.0605
▁취할	-10.0605
▁학살	-10.0607
▁리비아	-10.0608
▁성향	-10.0608
▁파악	-10.061
통신	-10.0615
▁말합니다	-10.0617
▁계획이	-10.0617
▁주식시장	-10.0618
▁밖에서	-10.0623
운동	-10.0624
▁의무	-10.063
▁선물	-10.0631
▁자기	-10.0636
▁앨범	-10.064
▁성과	-10.0643
▁참	-10.0646
▁내전	-10.0647
▁국제적	-10.0647
▁이란은	-10.0651
▁존재	-10.0652
▁있	-10.0665
선수	-10.0671
▁지켜	-10.0672
▁수집	-10.0677
""	-10.0682
▁CIA	-10.0684
▁소니	-10.0688
▁예상했다	-10.0693
▁다니	-10.0698
달러에	-10.071
모든	-10.0711
▁사무총장	-10.0715
▁리콜	-10.0717
▁허락	-10.0717
▁화산	-10.0717
▁저항	-10.0718
▁특별한	-10.072
▁보상	-10.0721
▁출시	-10.0723
▁원하는	-10.0728
▁분야	-10.0732
▁경기장	-10.0732
▁체니	-10.0732
▁중국에서	-10.0744
벨	-10.0749
▁레이스	-10.0754
▁이익	-10.0757
그들은	-10.0758
▁해변	-10.0759
어야	-10.0764
▁파타	-10.0779
▁존슨	-10.0782
15	-10.0783
헤	-10.0787
▁논란	-10.0788
▁기도	-10.0797
▁이번주	-10.0799
▁티	-10.0802
암	-10.0809
▁m	-10.0814
▁생존	-10.0818
ap	-10.0823
됐고	-10.0824
▁유나이티드	-10.0828
세계	-10.0828
▁않았으며	-10.083
▁지키	-10.0832
▁마시	-10.0835
▁사살	-10.0842
년에는	-10.0848
▁대부분이	-10.0849
▁에드	-10.0851
▁철도	-10.0855
조사	-10.086
려고	-10.0865
안에	-10.0871
▁아일랜드	-10.0874
▁늘	-10.088
▁기업들	-10.0882
▁보면	-10.0883
▁모양	-10.0891
▁사건과	-10.0902
▁면	-10.0904
▁입원	-10.0909
▁바라고	-10.0919
완	-10.0921
귀	-10.0921
▁총재	-10.0923
쇼	-10.0923
▁유가	-10.0925
▁나서	-10.0934
법원	-10.0937
▁수요	-10.094
▁여기	-10.0941
▁챔피언	-10.0941
▁찾고	-10.0941
▁쿠데타	-10.0941
▁헤즈볼라	-10.0941
▁대다수	-10.0942
▁봄	-10.0943
▁덮	-10.0946
▁기능	-10.0946
▁핵시설	-10.0946
▁격차	-10.0948
▁서방	-10.0951
▁사건으로	-10.0959
장관은	-10.0961
▁환	-10.0965
▁발표된	-10.0968
▁고객	-10.0969
▁처음이다	-10.0971
제를	-10.0972
위원회는	-10.099
▁확신	-10.0995
▁노출	-10.1008
▁차드	-10.1018
est	-10.102
cm	-10.1022
▁빛	-10.1022
▁폭발물	-10.1023
▁가까이	-10.1024
물을	-10.1027
▁경찰서장	-10.1032
▁전투기	-10.104
희	-10.1054
▁Iraq	-10.1054
▁멸종	-10.1056
▁with	-10.1056
▁여자친구	-10.1057
▁겨울	-10.1057
▁장례식	-10.1057
▁마틴	-10.1059
▁복구	-10.106
▁체결	-10.106
▁잔	-10.106
▁걸릴	-10.1061
ia	-10.1062
▁만날	-10.1063
100	-10.1074
▁달라	-10.1075
▁파티	-10.1078
▁황	-10.1084
▁시점	-10.1099
▁톰	-10.11
▁공격이	-10.1111
▁악	-10.1112
였	-10.112
82	-10.1121
▁강조	-10.1128
▁부르	-10.1131
▁힘들	-10.1132
ry	-10.1138
장관	-10.1139
했기	-10.1144
▁샤리프	-10.1144
근	-10.1146
▁현재까지	-10.1154
대통령	-10.1154
공격	-10.1163
▁국왕	-10.1166
▁작	-10.1166
▁의회의	-10.1167
갑	-10.117
▁남아	-10.1171
▁알래스카	-10.1173
▁다르푸르	-10.1173
▁특정	-10.1175
▁심문	-10.118
▁동반	-10.118
▁일환으로	-10.1181
▁무력	-10.1189
째	-10.119
▁마이크	-10.1192
▁업무	-10.1192
▁마르	-10.1194
라도	-10.1197
▁다이아몬드	-10.1198
▁답	-10.1199
▁신호	-10.12
lo	-10.1201
▁전해	-10.1207
▁탈	-10.1209
되어야	-10.1214
▁통합	-10.1216
▁수감자	-10.1218
▁CEO	-10.1218
▁추정되는	-10.1223
▁최초로	-10.123
▁웨스트	-10.1239
▁제도	-10.1247
잡	-10.125
▁요원	-10.1257
▁알아	-10.1279
허	-10.1282
▁둘	-10.1283
칸	-10.1284
내가	-10.129
▁다우존스	-10.129
▁달라이라마	-10.129
▁설득	-10.129
▁교환	-10.1291
V	-10.1294
▁현상	-10.1295
▁오염	-10.1296
▁탐사	-10.1297
▁보통	-10.13
▁치러진	-10.1301
대학	-10.1302
▁일주일	-10.1303
▁사실상	-10.1305
▁떠	-10.1308
▁잠시	-10.1309
▁파산	-10.131
▁이스라엘군	-10.1321
니는	-10.1323
▁이스라엘과	-10.1323
익	-10.1327
▁머	-10.1339
▁여사	-10.1346
▁상점	-10.135
▁아이들이	-10.1352
▁FTA	-10.1355
녀	-10.1358
▁제안했다	-10.1361
▁통신은	-10.1365
차전	-10.1366
원제	-10.1368
▁되기	-10.1375
▁보고했다	-10.1383
▁묻	-10.1384
▁37	-10.1385
▁시작한	-10.1392
▁근거	-10.1399
▁라이	-10.1401
▁광산	-10.1401
주의자	-10.1404
▁가자	-10.1407
]	-10.1409
▁더불어	-10.1409
▁발굴	-10.141
▁바꾸	-10.1411
▁않지만	-10.1413
▁어려운	-10.1413
▁행복	-10.1414
▁커피	-10.1414
▁50%	-10.1418
▁강요	-10.1421
▁업계	-10.1421
▁경보	-10.1424
▁이하	-10.1432
겼다	-10.1435
▁사용되	-10.1439
▁결정은	-10.1443
▁외교적	-10.1444
▁경찰서	-10.1446
▁대통령에	-10.1448
ma	-10.145
▁회원	-10.1455
▁솔	-10.1456
▁엔	-10.1457
▁법정	-10.1457
▁된다고	-10.1465
▁프	-10.1465
관은	-10.1467
▁니	-10.1473
▁폐기	-10.1475
▁밝히고	-10.1478
▁목적으로	-10.1492
▁FARC	-10.1498
▁깨	-10.1504
▁협상이	-10.1507
스키	-10.1514
▁직면	-10.1516
닥	-10.1523
욕	-10.1524
▁내용이	-10.1529
▁스리랑카	-10.153
▁에드워즈	-10.153
▁갑자	-10.153
후드	-10.1531
▁출석	-10.1532
연맹	-10.1532
▁매각	-10.1535
▁도입	-10.1535
▁신임	-10.1542
▁거두	-10.1542
▁적은	-10.1544
400	-10.1549
▁계속되고	-10.1554
▁일본에서	-10.1557
▁적절한	-10.1564
트리	-10.1564
▁꿈	-10.1568
▁지점	-10.1568
▁시위에	-10.1568
▁고대	-10.157
▁시장에서	-10.157
▁영화제	-10.1571
ut	-10.1576
▁다수	-10.158
▁사전	-10.158
▁타이	-10.1581
▁일본이	-10.1588
▁낸	-10.1589
▁상승했다	-10.1589
▁서울에서	-10.159
▁있어서	-10.1593
▁36	-10.1594
었고	-10.1597
▁교도소	-10.1608
▁다우	-10.1613
▁의식	-10.1616
▁책임자	-10.1617
▁감정	-10.162
▁대기	-10.1624
▁본사	-10.1628
사회	-10.1631
▁투어	-10.1633
▁시드	-10.1634
▁노동자들	-10.1636
▁말라	-10.1638
▁늘어	-10.1643
▁방글라데시	-10.1652
▁오스트리아	-10.1652
▁칠레	-10.1652
▁NBC	-10.1653
뿐	-10.1653
▁단순	-10.1654
▁합동	-10.1655
▁성관계	-10.1657
▁기존	-10.1657
▁넓	-10.1659
▁세상	-10.1662
▁것이라며	-10.1664
사태	-10.1666
▁됩니다	-10.1675
▁아동	-10.1678
▁북측	-10.1678
▁보유	-10.168
브라	-10.1682
▁의회는	-10.1687
▁소수	-10.1689
▁의지	-10.169
▁그림	-10.17
▁국회의원	-10.1703
▁부근에서	-10.171
▁무시	-10.1711
▁중부	-10.1714
▁오브	-10.1714
로운	-10.1715
만약	-10.1718
▁중요	-10.1724
▁실시되	-10.1725
▁만족	-10.1728
▁수상자	-10.1733
▁소식이	-10.1734
▁승리했다	-10.1745
니아	-10.1747
▁부과	-10.1749
▁벗어나	-10.1768
최	-10.1769
▁야생	-10.1769
▁노스캐롤라이나	-10.1775
▁봉쇄	-10.1775
롱	-10.1775
▁폭동	-10.1779
둘	-10.1779
▁치열	-10.1779
ational	-10.1779
▁노력하고	-10.1779
이슬람	-10.178
▁부담	-10.1782
▁버마	-10.1788
세력	-10.179
▁st	-10.1792
▁고소	-10.1793
▁각국	-10.1797
▁美	-10.1802
▁부여	-10.1806
▁복용	-10.1807
▁공산당	-10.1809
빠진	-10.1814
▁중독	-10.1816
되며	-10.1824
조원	-10.1825
▁많다	-10.1834
▁조성	-10.184
▁로한	-10.1846
했음	-10.1847
▁충	-10.1848
혼	-10.1849
▁추측	-10.1857
▁행성	-10.1858
▁말까지	-10.1859
▁공항에서	-10.1865
▁모인	-10.1873
찰	-10.1874
▁내놓	-10.1876
▁크기	-10.1878
▁테러리스트	-10.1882
▁순찰	-10.1885
▁라고	-10.1886
정도	-10.1887
▁de	-10.1887
▁사인	-10.1892
웨	-10.1893
딩	-10.1899
▁블랙	-10.19
▁없으며	-10.19
▁마카오	-10.19
▁흡연	-10.19
▁검거	-10.19
▁카르자이	-10.19
▁농축	-10.1901
▁가옥	-10.1901
▁하늘	-10.1902
참	-10.1903
으로써	-10.1903
ig	-10.1906
▁재무장관	-10.1908
파키스탄	-10.1908
▁소설	-10.1908
▁가했다	-10.1909
▁공중	-10.1915
▁의회에	-10.1915
▁예비	-10.1918
▁만화	-10.1919
됐을	-10.1919
세인	-10.192
▁청소년	-10.1921
▁나이지리아	-10.1921
▁측정	-10.1925
▁세우	-10.1928
드라	-10.1929
▁보관	-10.193
조직	-10.1933
▁린	-10.1937
▁현실	-10.1941
▁일간	-10.195
가격	-10.196
de	-10.196
▁환자들	-10.1961
▁명단	-10.1964
▁식	-10.1972
▁식품	-10.1973
▁북쪽	-10.1988
▁전날	-10.1991
잔	-10.2
▁나갈	-10.2008
▁증가하고	-10.2011
다시	-10.2013
으	-10.202
픽	-10.2027
▁네트워크	-10.2027
▁훌륭	-10.2027
▁파예드	-10.2027
▁습격	-10.2027
▁카스트로	-10.2027
▁취재	-10.2027
▁복잡	-10.2027
더라도	-10.2027
▁자리에서	-10.2027
▁목록	-10.2028
9%	-10.2031
▁최선	-10.2031
▁시드니	-10.2033
▁페루	-10.2035
▁구출	-10.2035
▁개방	-10.2037
상황	-10.2045
▁있었고	-10.2053
▁말하는	-10.206
▁고등학교	-10.2064
▁야기	-10.2065
버그	-10.2065
▁내릴	-10.2066
▁조사에	-10.2068
관련	-10.2072
국인	-10.209
▁탐	-10.2096
해주	-10.2098
되자	-10.21
▁기다리고	-10.2104
▁선언했다	-10.2114
▁성공적	-10.2115
▁워	-10.2117
▁움직이	-10.213
▁기반	-10.2132
▁아니	-10.2132
사의	-10.2141
▁왕세자	-10.2149
델	-10.2152
▁항소	-10.2154
▁북동부	-10.2155
▁스웨덴	-10.2155
▁혜택	-10.2155
▁훼손	-10.2155
▁숫자	-10.2155
▁이유는	-10.2157
▁남아공	-10.2158
▁순방	-10.2158
▁상처	-10.2162
▁거뒀다	-10.2163
▁발병	-10.2164
▁이루	-10.2164
▁분리	-10.2166
▁삼성	-10.2167
▁유감	-10.2168
▁윌	-10.2169
▁체제	-10.2172
▁방화	-10.2173
▁불러	-10.2177
▁샌	-10.2179
데이	-10.2184
▁공격에	-10.2186
▁숙	-10.2198
▁모여	-10.2204
지난	-10.2205
년이	-10.2206
▁그동안	-10.2207
▁대답	-10.2208
▁니콜	-10.2212
▁분석가	-10.2216
▁사라	-10.2224
이션	-10.2226
▁이주	-10.2228
▁이것	-10.223
▁의회에서	-10.2242
도시	-10.2248
▁지도자들은	-10.2266
▁델	-10.2267
▁주제	-10.2277
▁베이징에서	-10.2278
장치	-10.2283
▁덴마크	-10.2285
▁얻기	-10.2285
▁이렇게	-10.2285
▁정확히	-10.2285
멋진	-10.2285
▁고향	-10.2289
▁진실	-10.2292
▁사담	-10.2294
풍	-10.2294
▁특사	-10.2295
▁2010	-10.2295
작업	-10.2295
▁놀	-10.2299
▁지진이	-10.2301
▁작동	-10.2304
▁현금	-10.2304
▁했지만	-10.2305
▁확정	-10.2306
▁본선	-10.231
▁이뤄지	-10.2314
▁10%	-10.2317
▁거부했다	-10.2323
▁올린	-10.2326
▁목사	-10.2328
▁시내	-10.2334
▁탈출	-10.2337
대회	-10.2342
드시	-10.2342
▁싸	-10.2346
▁바이	-10.2351
로스	-10.2356
▁태평양	-10.2366
▁AC	-10.2369
명에게	-10.2375
▁표시	-10.2385
▁반군이	-10.2385
▁카드	-10.2387
스티	-10.2392
▁해병대	-10.2395
주는	-10.2402
펠	-10.2403
▁군인들	-10.2404
▁말리키	-10.2405
검사	-10.241
▁플레이	-10.241
켓	-10.2412
십	-10.2413
컨	-10.2416
▁명확	-10.2416
▁마찬가지	-10.2416
▁will	-10.2417
▁커플	-10.2418
▁레알	-10.2419
▁자극	-10.242
▁입증	-10.2422
행위	-10.2423
▁지속	-10.2425
▁세포	-10.2425
▁수영	-10.2425
▁일리노이주	-10.2426
▁만난	-10.2427
▁실패했다	-10.2427
▁챔피언스리그	-10.2428
▁선발	-10.243
▁고발	-10.2431
▁중지	-10.2432
▁주지	-10.2435
정보	-10.2442
현재	-10.2444
웨이	-10.2445
▁발생했으며	-10.2447
▁제공하는	-10.245
▁끼	-10.2453
분의	-10.2454
▁대가로	-10.2458
▁형태	-10.2461
▁공화국	-10.2485
▁시위대는	-10.2488
300	-10.2492
▁권한	-10.2496
▁육	-10.2496
▁600	-10.252
▁승	-10.2525
▁답변	-10.2529
▁빅	-10.2535
▁명은	-10.2539
지금	-10.2542
▁방침	-10.2546
▁붉은	-10.2548
젤	-10.2549
▁남동부	-10.255
▁예루살렘	-10.255
▁청문회	-10.255
▁새끼	-10.2551
▁마치고	-10.2553
짜리	-10.2556
▁노예	-10.2559
▁소요	-10.2559
▁있다면	-10.2561
▁Japan	-10.2568
쓰	-10.2569
그룹	-10.2574
송	-10.2578
▁이양	-10.2582
▁IAEA	-10.2582
▁진화	-10.2586
600	-10.2587
▁초점	-10.2589
당국	-10.2595
▁안에서	-10.2611
▁화학	-10.2614
▁발생하지	-10.2622
▁이송	-10.2629
▁최	-10.2633
▁하이	-10.264
▁보안군	-10.2642
천만	-10.2645
▁함	-10.2645
▁끌어	-10.265
▁차관	-10.265
▁그것이	-10.265
기업	-10.2651
▁대회에서	-10.2651
▁절대	-10.2656
▁수업	-10.266
▁보인다고	-10.2661
▁대선에서	-10.2662
te	-10.2664
age	-10.2665
▁장군	-10.2669
▁외교관	-10.2672
▁체계	-10.2676
▁노벨	-10.2677
▁사장은	-10.2678
▁진전	-10.2681
팅	-10.2681
▁활주로	-10.2685
▁폴란드	-10.2685
▁외교통상부	-10.2685
▁완벽	-10.2685
▁어린이들	-10.2685
▁다니엘	-10.2686
▁근처	-10.2687
▁분열	-10.2689
산업	-10.2697
▁이중	-10.27
압	-10.27
▁받아야	-10.2702
▁인사들	-10.2707
사인	-10.2707
▁결정에	-10.2707
▁중순	-10.2711
▁보석	-10.2711
충	-10.2711
생활	-10.2712
폴	-10.2713
홍	-10.2714
칼	-10.2715
시키려	-10.2718
▁38	-10.2718
▁봉사	-10.2722
▁사장	-10.2726
▁열대	-10.2728
▁결의안	-10.2729
있	-10.273
▁헌	-10.2738
▁철	-10.2739
수를	-10.2754
▁납치된	-10.2762
▁했으며	-10.2763
쳤	-10.277
적이고	-10.2772
▁군정	-10.2774
해줄	-10.2788
▁하면	-10.279
▁폭격	-10.2791
▁부정적	-10.2793
▁원한다	-10.2795
▁측근	-10.2795
▁이행	-10.2797
수록	-10.2802
▁실망	-10.2803
하고자	-10.2804
업자	-10.2814
▁의학	-10.2814
▁잃은	-10.2822
▁리조트	-10.2822
▁삭제	-10.2822
▁타이틀	-10.2822
▁관찰	-10.2823
▁아이디어	-10.2823
▁있었지만	-10.2823
▁절	-10.2823
▁표했다	-10.2823
▁복무	-10.2824
▁합병	-10.2824
▁모기지	-10.2825
▁생긴	-10.2825
▁위원회는	-10.2827
▁철군	-10.2827
▁아니면	-10.2827
▁PC	-10.2827
▁고립	-10.2828
▁빙하	-10.2828
▁무죄	-10.283
▁분명히	-10.2831
▁대량	-10.2833
▁구금	-10.2836
▁견해	-10.2838
▁인디애나	-10.2838
6000	-10.284
▁돌아	-10.284
자들의	-10.284
걸	-10.2841
육	-10.2841
▁발간	-10.2843
▁크루즈	-10.2845
▁런던에서	-10.2847
▁실적	-10.2848
▁높아지	-10.2849
▁공유	-10.285
▁노대통령	-10.285
▁난사	-10.2851
접	-10.2852
▁호세	-10.2852
팔	-10.2854
▁뉴욕에서	-10.2857
▁방향	-10.2858
▁유전자	-10.286
▁싸움	-10.2866
금을	-10.2866
z	-10.2867
▁기상	-10.2872
90	-10.2882
보다는	-10.2883
▁피해가	-10.2884
▁보이	-10.2892
▁수상했다	-10.2892
▁폭탄이	-10.2894
피트	-10.2894
▁지시했다	-10.2898
▁신체	-10.2901
▁수감자들	-10.2901
이던	-10.2903
▁방송국	-10.2907
▁부서	-10.2908
▁시장에	-10.291
▁an	-10.2912
▁요인	-10.2913
▁위원장	-10.2914
▁증권	-10.2915
겠지만	-10.2938
▁주지사가	-10.2947
닌	-10.2951
▁보고서에서	-10.2951
사고	-10.2954
건의	-10.2956
▁라스베이거스	-10.2961
▁봤다	-10.2961
▁태어난	-10.2961
▁토마스	-10.2961
▁회동	-10.2961
ter	-10.2963
▁은퇴	-10.2963
▁채택	-10.2964
램	-10.2964
▁청구	-10.2967
분간	-10.297
▁일반적으로	-10.297
▁돌아오	-10.2971
▁계획이라고	-10.2971
▁갖게	-10.2975
영국	-10.2976
▁위조	-10.2978
▁서신	-10.2982
▁총격전	-10.2983
▁누리	-10.2989
▁크라이슬러	-10.2991
▁캘리포니아주	-10.2994
▁안전한	-10.3004
▁과학자	-10.3006
▁경영	-10.301
▁운송	-10.3012
▁크레	-10.3012
▁달러에	-10.3014
99	-10.3016
▁기대하고	-10.3017
▁하던	-10.3017
▁고어	-10.3017
▁리그	-10.3021
▁거주	-10.3023
지수	-10.3024
되었고	-10.3027
명도	-10.3032
-1	-10.3034
▁그래	-10.3045
▁의미한다	-10.3046
▁방법이	-10.3062
800	-10.3072
ow	-10.3073
▁나누	-10.3086
12	-10.3087
▁지역으로	-10.309
▁재단	-10.3093
▁성화봉송	-10.3093
▁교사	-10.3094
대한	-10.3098
▁여성의	-10.31
▁맞춰	-10.3102
▁앓고	-10.3102
▁협박	-10.3102
▁한국에서	-10.3102
▁심지어	-10.3102
▁사우디아라비아	-10.3102
▁보여줬다	-10.3102
▁면담	-10.3103
▁하원의원	-10.3103
▁데이터	-10.3104
타운	-10.3106
▁2012	-10.3106
▁보낼	-10.3106
▁거쳐	-10.3113
▁주기	-10.3114
▁유발	-10.3118
▁재난	-10.3118
▁값	-10.3118
▁실종된	-10.3119
궁	-10.3124
▁보유하고	-10.3127
기술	-10.3128
▁이루어지	-10.3131
력이	-10.3139
곡	-10.314
롤	-10.314
▁콩고	-10.3141
▁시청	-10.3142
▁무선	-10.3143
▁승리한	-10.3143
▁스테	-10.3144
틴	-10.3144
▁토론회	-10.3146
연구소	-10.3147
부대	-10.315
700	-10.3152
▁즐	-10.3157
▁선거에	-10.3161
▁이사회	-10.3161
▁위로	-10.3164
▁영장	-10.3165
일본	-10.3166
▁트리	-10.3169
리스트	-10.317
▁자세한	-10.3174
▁혁명	-10.3175
뉴스	-10.3176
▁사회적	-10.3176
j	-10.3179
▁뼈	-10.3181
시에	-10.3189
때문에	-10.3189
▁클레	-10.3212
▁생각하는	-10.3219
럴	-10.322
현지	-10.3227
▁전역	-10.3235
▁호텔에서	-10.3235
국장은	-10.3237
▁주목	-10.3238
▁얻어	-10.3239
기지	-10.324
▁태양	-10.3243
릿	-10.3244
▁엄격	-10.3244
▁휴대전화	-10.3245
▁1994	-10.3247
▁하와이	-10.3248
▁논평	-10.3248
▁해결책	-10.325
▁마쳤다	-10.325
회담	-10.325
▁단속	-10.3251
▁명예	-10.3251
▁형제	-10.3253
▁나오는	-10.3253
장인	-10.3253
▁무료	-10.3253
▁바르셀로나	-10.3257
▁강타	-10.3258
▁신발	-10.326
▁죄	-10.3261
▁유력	-10.3261
▁추정된다	-10.3262
▁대학교	-10.3263
▁치러	-10.3267
▁획득	-10.3269
▁도달	-10.3272
▁계획은	-10.3276
▁만들어진	-10.3278
▁앞에	-10.3279
자들에게	-10.3286
택	-10.3288
▁누군가	-10.329
▁못하게	-10.3293
▁48	-10.3298
▁사용한	-10.3315
작전	-10.333
▁조합	-10.3331
▁상태에	-10.3334
▁스키	-10.3337
되었던	-10.334
▁책임이	-10.3348
ang	-10.3357
이기	-10.3359
▁이끌어	-10.3363
▁것이고	-10.3364
▁빚	-10.3365
▁초대	-10.3369
선거	-10.3371
▁동성애자	-10.3374
라스	-10.3374
어스	-10.3374
▁항	-10.3376
▁3000	-10.3377
됐었다	-10.3378
핑	-10.3385
멸	-10.3387
지구	-10.3388
▁찾을	-10.3389
▁쓰나미	-10.3389
▁에어버스	-10.339
▁외환은행	-10.339
▁급등	-10.3392
▁디자인	-10.3393
물이	-10.3393
▁두바이	-10.3397
▁중심부	-10.3401
▁시각	-10.3402
▁여권	-10.3402
스타인	-10.3402
네스	-10.3403
▁펼쳤다	-10.3403
▁경제에	-10.3403
▁클린턴이	-10.3404
▁신중	-10.3406
▁간단	-10.3409
▁참석했다	-10.3413
▁동티모르	-10.3413
▁녹	-10.3414
▁기계	-10.3415
▁전쟁에	-10.3418
▁사령관은	-10.3419
으려	-10.342
▁보트	-10.3423
▁도시에서	-10.3427
▁주한미군	-10.3428
▁한때	-10.3433
▁비교	-10.3435
▁못한다	-10.3436
싱	-10.3436
▁이후로	-10.344
▁논란이	-10.3442
▁측은	-10.3449
▁잇	-10.345
▁경쟁자	-10.3451
▁공간	-10.3455
▁마비	-10.3461
된다고	-10.3462
▁신부	-10.3471
▁말하며	-10.3472
▁사드르	-10.3476
▁펜	-10.3477
해진	-10.3477
our	-10.348
▁물가	-10.3483
▁회의에서	-10.3484
▁곡	-10.3488
▁분명	-10.3495
▁발생하는	-10.3499
▁운동을	-10.3502
▁비용이	-10.3502
▁취하	-10.3503
▁홀	-10.3509
▁의석	-10.3515
스톤	-10.3519
▁당신이	-10.3521
▁테러범	-10.3523
활	-10.3524
▁r	-10.3527
▁지정	-10.353
킬로미터	-10.3536
▁그렇지	-10.3536
▁불능화	-10.3536
▁일으킨	-10.3536
▁송환	-10.3537
▁저지른	-10.3538
▁(=	-10.3539
세가	-10.3542
들로부터	-10.3544
▁나올	-10.3544
▁이루어졌다	-10.3547
▁Co	-10.355
▁공포	-10.3552
▁자문	-10.3554
▁존중	-10.356
▁점차	-10.3564
▁첫번째	-10.3566
되었으며	-10.3567
진다	-10.3572
▁케리	-10.3573
▁우리당	-10.3581
칭	-10.3582
▁주한	-10.3586
▁응답자	-10.3587
맥	-10.3588
지역에서	-10.3588
주에서	-10.3594
▁이곳에	-10.3597
▁지켜보	-10.3597
▁일으키	-10.3597
▁차관보는	-10.3601
▁피트	-10.3602
이었으며	-10.3616
▁마감했다	-10.3619
제대로	-10.3624
▁견	-10.3627
▁시티	-10.3629
▁감독이	-10.3634
▁주인	-10.3634
디스	-10.3637
▁물건	-10.3653
▁못해	-10.3658
▁지목	-10.3661
군은	-10.3662
▁몰아	-10.3665
▁제기했다	-10.3668
▁자유를	-10.3669
▁케이블	-10.367
▁생일	-10.3671
me	-10.3672
ak	-10.3672
▁그리	-10.3674
▁아이오와	-10.3674
▁리처드	-10.3676
징	-10.3682
▁죽은	-10.3684
웅	-10.3685
▁레스토랑	-10.3686
▁선거캠프	-10.3686
▁옆에	-10.3686
▁plan	-10.3686
▁흥분	-10.3686
▁배출	-10.3686
▁우리나라	-10.3688
▁종류	-10.3691
▁받았으며	-10.3691
▁임금	-10.3694
▁노동당	-10.3695
▁개표	-10.3696
▁민주	-10.3696
▁유출	-10.3696
▁세계은행	-10.37
▁표명	-10.3703
▁상공	-10.3703
▁발전소	-10.3709
▁김대중	-10.371
▁것이었다	-10.3716
▁기금	-10.3716
▁공약	-10.3717
▁파손	-10.3719
▁답했다	-10.3723
▁아니었다	-10.3733
▁검사는	-10.3735
▁가구	-10.3736
스카	-10.3739
▁중재	-10.3739
▁우주비행사	-10.3742
이스라엘	-10.3744
파운드	-10.3746
펜	-10.3747
심한	-10.3747
▁상어	-10.3749
▁망	-10.3755
제도	-10.376
▁법안이	-10.376
▁Re	-10.3764
▁하게	-10.377
▁주문	-10.3775
▁비판했다	-10.3776
▁목격	-10.3777
▁지상	-10.3777
번째로	-10.3781
▁국장	-10.3783
돼있다	-10.3785
스크	-10.3787
▁당수	-10.3798
-2	-10.3799
▁130	-10.3799
▁국방	-10.3801
▁지지율	-10.3811
▁방영	-10.3815
PA	-10.3819
▁압둘	-10.382
▁백악관은	-10.3827
▁발언에	-10.3827
▁42	-10.3829
▁조기	-10.3836
0,000	-10.3837
▁가슴	-10.3837
▁곤잘레스	-10.3837
▁만났다	-10.3837
▁되찾	-10.3837
▁헨리	-10.3837
▁핵프로그램	-10.3838
▁백인	-10.3839
▁숀	-10.3839
▁강풍	-10.384
▁테스트	-10.3841
조차	-10.3841
▁인생	-10.3842
▁경영진	-10.3842
▁지속적	-10.3844
세트	-10.3845
쪽	-10.3845
▁1970	-10.3846
▁사망자수	-10.3847
▁주장에	-10.385
-3	-10.3853
▁예전	-10.3855
▁보도에따르면	-10.3856
▁불길	-10.3862
▁요소	-10.3863
▁싶어	-10.3863
▁차단	-10.3864
▁기자들에게	-10.3865
▁다루	-10.3868
▁미국측	-10.387
▁일리노이	-10.387
▁세워	-10.3873
되었	-10.3877
▁그래서	-10.3882
65	-10.3884
79	-10.3884
▁외곽	-10.3888
▁없었	-10.3895
홀	-10.3898
Y	-10.39
▁법원에	-10.3901
▁자원	-10.3901
슬리	-10.3903
▁프로그램에	-10.3905
▁중국에	-10.3909
▁개장	-10.391
▁중간	-10.3911
▁따라서	-10.3913
▁뿐만아니라	-10.3921
드로	-10.3922
▁콘	-10.3924
▁총장은	-10.3925
시대	-10.3925
▁세대	-10.3929
오는	-10.3931
국제	-10.3942
▁선전	-10.3946
ine	-10.3946
▁800	-10.3952
당국은	-10.3952
세로	-10.396
45	-10.3965
47	-10.3967
▁이민	-10.3974
퇴	-10.3975
▁사용자	-10.3979
바이	-10.3983
아이	-10.3987
▁들어갔다	-10.3991
▁북서부	-10.3991
▁나스닥	-10.3991
▁침입	-10.3991
▁와인하우스	-10.3991
▁자유롭	-10.3993
▁ABC	-10.3993
▁화장실	-10.3993
▁직업	-10.3993
qu	-10.3994
▁진영	-10.3996
▁특	-10.3997
▁산림	-10.3997
비치	-10.3997
▁사막	-10.3998
▁이라크와	-10.4
▁화면	-10.4001
▁40%	-10.4001
▁역사적	-10.4001
차량	-10.4005
▁배경	-10.4005
▁올려	-10.4005
달라고	-10.4006
▁쓴	-10.4009
▁-	-10.4011
미군	-10.4015
▁해임	-10.4015
▁얼음	-10.4021
▁논의하기	-10.4023
▁앨	-10.4027
▁사용될	-10.4029
▁열어	-10.4029
▁리치	-10.4029
▁인류	-10.4031
해질	-10.4032
▁웨	-10.4033
ill	-10.4033
▁보지	-10.4036
베나	-10.4039
▁가능하다	-10.4042
▁집으로	-10.4043
ay	-10.4046
▁리드	-10.4052
객	-10.4053
▁전원	-10.4053
콘	-10.4055
▁돼지	-10.4057
▁두번째	-10.4061
▁짓	-10.4063
러시아	-10.4064
▁셀	-10.4072
▁재건	-10.4077
▁식당	-10.4077
▁감지	-10.4078
▁걸리	-10.4082
one	-10.4083
련	-10.4093
브레	-10.4098
18	-10.4101
▁해양	-10.4102
▁근로자	-10.4102
▁생각했다	-10.411
놓	-10.411
▁경비	-10.4113
학자	-10.4115
▁아프가니스탄에서	-10.4115
대사	-10.4117
▁음	-10.4117
비아	-10.4119
▁시민들이	-10.412
▁말해	-10.4126
트로	-10.4132
▁왔	-10.4135
간에	-10.4135
▁베르	-10.4136
▁건축	-10.4143
▁요르단	-10.4146
▁President	-10.4147
▁궤도	-10.4147
▁떠났다	-10.4147
▁맞추	-10.4147
▁블라디미	-10.4147
▁없지만	-10.4147
▁활약	-10.4147
닷컴	-10.4147
▁둘러싸	-10.4147
▁라이벌	-10.4148
▁대륙	-10.4148
▁언어	-10.4149
▁패션	-10.4149
▁자치정부	-10.4149
츠는	-10.415
▁법무부	-10.415
▁결과는	-10.4152
▁축소	-10.4152
▁왕실	-10.4153
▁주었다	-10.4153
▁성격	-10.4155
ant	-10.4157
▁불편	-10.416
▁다우지수	-10.4162
▁북미	-10.4167
▁혐의에	-10.4169
▁스코틀랜드	-10.4169
▁공모	-10.417
▁직전	-10.4174
▁연안	-10.4175
버리	-10.4177
위의	-10.4178
▁해적	-10.4178
▁백악관에서	-10.4182
스코	-10.419
▁맥주	-10.4191
측이	-10.4198
▁독도	-10.4198
▁홈	-10.4203
▁라이트	-10.4204
▁대치	-10.4204
ck	-10.4204
얼	-10.4209
폐	-10.421
▁시기에	-10.421
킹	-10.4212
▁세금을	-10.4213
우주	-10.4214
놀	-10.4215
▁극복	-10.4216
▁폭락	-10.4217
뿐만아니라	-10.4219
▁개시	-10.4224
▁자신에게	-10.4225
▁농장	-10.4228
▁나타내	-10.4232
▁연금	-10.4234
▁합류	-10.4234
▁홍	-10.4235
안보	-10.4238
▁진술했다	-10.424
▁맡은	-10.4242
▁등장	-10.4247
널	-10.4251
▁결의안을	-10.4253
▁보내는	-10.4259
▁불과	-10.4271
▁윤	-10.4284
즉각적인	-10.4285
▁후원	-10.4285
▁도착한	-10.4288
▁55	-10.4291
▁적극적	-10.4292
탕	-10.4293
아야	-10.4293
▁동쪽	-10.4294
ne	-10.4294
▁자사	-10.43
뜨	-10.4303
▁프레스	-10.4304
켄	-10.4306
▁샤라포바	-10.4306
▁남서부	-10.4306
▁리차드	-10.4306
▁가택연금	-10.4306
▁받아들일	-10.4306
▁겨냥	-10.4306
▁천주교	-10.4306
▁패트릭	-10.4307
▁거듭	-10.4307
▁수석대표	-10.4307
▁빈곤	-10.4308
▁관영	-10.4309
▁구축	-10.4312
▁영국인	-10.4313
▁잡고	-10.4314
▁일어나	-10.4315
▁정신적	-10.4315
결과	-10.4317
▁낸시	-10.432
▁가해	-10.4321
▁상업	-10.4323
▁들여	-10.4323
▁보복	-10.4325
▁대항	-10.4326
▁사법	-10.4327
▁해산	-10.4334
▁벌였	-10.434
▁즉각	-10.434
▁주장하며	-10.4346
▁위에	-10.4348
석을	-10.4351
▁전환	-10.4351
ight	-10.4352
man	-10.4357
▁g	-10.4358
소를	-10.4359
폰	-10.4364
▁꾸	-10.4368
셀	-10.4369
▁120	-10.4369
▁지내	-10.4375
윈	-10.4377
▁의원들	-10.4378
▁병사들	-10.4379
▁자제	-10.438
몰	-10.4382
받았다	-10.4384
카운티	-10.4384
mm	-10.4386
▁만들고	-10.4387
▁모스크바	-10.4388
▁일제	-10.4388
▁무엇	-10.4388
▁at	-10.4394
매우	-10.4398
▁Y	-10.4401
▁소득	-10.4404
ity	-10.4404
▁부근	-10.4404
▁앉아	-10.4405
▁즐기	-10.4412
▁감염된	-10.4414
투표	-10.4415
11	-10.4418
▁카페	-10.4424
▁조약	-10.4436
▁애도	-10.444
▁공개된	-10.4456
▁수송	-10.4457
▁눈에	-10.446
▁전역에	-10.4464
탑	-10.4465
▁쌍둥이	-10.4467
▁알코올	-10.4467
▁상하이	-10.4468
▁탄핵	-10.4468
▁영웅	-10.4468
▁입법	-10.4468
▁다섯	-10.4468
▁케빈	-10.4469
▁비난하고	-10.4472
▁공항에	-10.4472
▁사람에게	-10.4472
▁폭파	-10.4475
▁희생	-10.4475
▁월드	-10.4476
▁상태로	-10.4479
▁오사마빈라덴	-10.4482
▁카터	-10.4485
▁스타일	-10.4487
▁초반	-10.4488
▁유럽의	-10.449
▁것인가	-10.4492
▁달려	-10.4496
▁오바마와	-10.4496
▁공사	-10.4497
▁거리에	-10.4497
▁묵	-10.4498
▁나토군	-10.4499
▁들어오	-10.4506
▁보호하기	-10.4507
▁타임스	-10.4507
뉴	-10.4508
미터	-10.451
▁던지	-10.451
▁확실한	-10.4513
▁금리	-10.4516
▁폭스	-10.4519
▁국민들에게	-10.4519
▁한국에	-10.4521
▁동기	-10.4522
▁혼	-10.4526
▁이재민	-10.4527
▁투표에서	-10.4529
95	-10.4531
▁이론	-10.4543
버렸다	-10.4545
돼야	-10.4546
▁증가한	-10.4547
답	-10.4548
가족	-10.4556
▁평가했다	-10.4557
▁회사가	-10.4562
▁떨어졌	-10.4564
▁날아	-10.4566
▁하락세	-10.4568
▁데이	-10.4569
냈	-10.4575
▁친구들	-10.4577
▁연관	-10.4579
▁논	-10.4582
▁보는	-10.4583
▁시장이	-10.4584
▁인근에	-10.4595
▁가져	-10.4601
▁여행객	-10.4601
▁감행	-10.4602
럼	-10.4604
▁대상이	-10.4609
▁멀	-10.4613
▁와인	-10.4617
위기	-10.462
됐으나	-10.4623
▁완전한	-10.4627
원은	-10.463
▁열리	-10.463
촉	-10.463
▁포로	-10.4631
▁디지털	-10.4631
▁마이애미	-10.4631
▁유튜브	-10.4631
▁캄보디아	-10.4631
▁비타민	-10.4631
▁침몰	-10.4631
▁오딩가	-10.4631
▁천연가스	-10.4631
▁날짜	-10.4632
▁지하철	-10.4632
▁로이터	-10.4633
▁급격	-10.4633
▁새벽	-10.4633
▁소련	-10.4634
▁사찰단	-10.4634
▁산사태	-10.4634
▁채널	-10.4634
▁감금	-10.4636
▁게재	-10.4638
▁엔진	-10.4638
▁분류	-10.4639
▁취임식	-10.4639
▁전세계적으로	-10.4646
▁증상	-10.4648
▁미시시피	-10.465
▁보험	-10.465
14	-10.4654
▁관광객들	-10.4658
▁경력	-10.4658
▁쌀	-10.4658
라드	-10.4659
국이	-10.466
▁미칠	-10.4662
▁원화	-10.4668
▁예수	-10.4686
▁옮겨	-10.4688
▁줄어들	-10.469
▁전부터	-10.469
안전	-10.4694
▁장면이	-10.4697
▁가상	-10.4698
▁낙	-10.4699
▁블	-10.4699
13	-10.4699
텐	-10.47
▁75	-10.4701
▁윈	-10.4712
삼	-10.4713
납	-10.4713
농	-10.4718
짓	-10.4718
▁계	-10.4719
▁코트	-10.4721
▁연구팀	-10.4724
▁딕	-10.4725
ts	-10.4727
▁문제들	-10.4732
ear	-10.4733
▁상승세	-10.4734
▁걸린	-10.4737
▁인종	-10.4748
▁합의했다고	-10.4754
▁단체들	-10.4757
co	-10.476
▁모색	-10.4775
▁이사	-10.4777
▁엄청	-10.4787
▁의존	-10.4788
64	-10.4792
▁34	-10.4792
▁경호	-10.4793
▁쇼핑	-10.4798
▁비핵화	-10.4798
▁뿌리	-10.4798
▁쓰촨성	-10.4798
▁좋다	-10.4798
▁결선투표	-10.4798
▁호랑이	-10.4798
▁근육	-10.4799
▁이뤄졌다	-10.4799
▁사냥	-10.48
▁44	-10.4801
▁다윈	-10.4802
▁받으며	-10.4803
▁소집	-10.4805
▁포경	-10.4806
▁재무부	-10.4806
▁대립	-10.4807
▁부채	-10.4809
▁연주	-10.4809
▁오늘날	-10.4811
▁33	-10.4813
▁공개적으로	-10.4815
▁마무	-10.4817
▁호소	-10.4819
년만에	-10.4821
역을	-10.4822
▁가동	-10.4822
▁참여한	-10.4823
▁로비	-10.4826
▁형사	-10.4831
▁디즈니	-10.4833
께	-10.4844
마자	-10.4856
▁이라크군	-10.4856
▁조각	-10.4858
▁권고	-10.4862
▁기다리	-10.4866
▁방식으로	-10.4867
▁제조업체	-10.4871
ain	-10.488
벽	-10.4887
▁내리	-10.4895
러스	-10.4896
량이	-10.4897
▁만들기	-10.4898
▁부총리	-10.49
▁나왔	-10.4904
im	-10.4912
넬	-10.4916
▁월요일에	-10.492
▁올랐	-10.4923
▁전복	-10.4924
▁나오지	-10.4926
사항	-10.4927
▁이에따라	-10.4933
이상	-10.4935
당신	-10.4942
▁공정	-10.4944
▁차량에	-10.4945
▁운영하	-10.4962
▁최저	-10.4964
얀	-10.4965
▁갔다	-10.4967
▁골키퍼	-10.4967
▁늦게	-10.4967
▁블라고예비치	-10.4967
▁알렉산더	-10.4967
▁키바키	-10.4967
▁토네이도	-10.4967
▁인플레이션	-10.4967
▁필라델피아	-10.4967
▁리히터	-10.4967
▁원숭이	-10.4967
▁오히려	-10.4967
▁갖춘	-10.4968
▁탄압	-10.4968
▁보스턴	-10.497
▁영업	-10.497
▁무엇보다	-10.4972
▁만남	-10.4974
▁언론에	-10.4974
▁기밀	-10.4975
▁물품	-10.4977
▁자본	-10.4978
▁*	-10.4978
자리	-10.4993
lu	-10.4997
▁스캔들	-10.4999
▁세계적	-10.5003
▁가족과	-10.5006
국은	-10.501
▁노선	-10.5014
포드	-10.5017
▁상상	-10.5019
▁표명했다	-10.5021
▁소문	-10.5023
▁연구에	-10.5023
▁일간지	-10.5023
세이	-10.5024
▁했었다	-10.5026
.8%	-10.5026
▁키스	-10.5027
▁차량이	-10.503
▁소위	-10.5031
▁들어간	-10.5037
▁그대로	-10.5042
▁호수	-10.5053
▁것임	-10.506
꺼	-10.5065
▁사람들과	-10.5066
벤	-10.5068
솔	-10.507
▁국민들이	-10.507
▁노인	-10.5071
▁유대인	-10.5082
▁공대	-10.5083
위인	-10.5084
▁입수	-10.5087
▁기록한	-10.5088
▁기소됐다	-10.5091
▁이식	-10.5099
유로	-10.511
▁응급	-10.5119
▁아프간에서	-10.5133
▁총상	-10.5135
▁일본과	-10.5136
넷	-10.5138
▁파트너	-10.5139
랙	-10.514
콤	-10.514
▁살았	-10.514
▁마이크로소프트	-10.514
▁화이트	-10.514
▁은신처	-10.514
▁정치인	-10.514
▁남자친구	-10.514
▁있었으나	-10.5141
▁종결	-10.5143
▁징역형	-10.5144
▁통일부	-10.5144
▁로저	-10.5148
▁체코	-10.5149
▁다음날	-10.515
▁한국이	-10.5153
▁확인됐다	-10.5155
▁소형	-10.5155
▁젊은이들	-10.5156
▁초청	-10.5157
▁이스라엘은	-10.5157
▁중대한	-10.5159
▁보여준다	-10.5163
디아	-10.5168
▁정식	-10.517
부는	-10.5172
▁시체	-10.5175
▁밥	-10.5182
해야만	-10.5183
▁알카에다와	-10.5188
▁근로자들	-10.5191
▁증시는	-10.5195
▁조사에따르면	-10.5195
▁51	-10.5196
▁가족들이	-10.5197
해왔	-10.5209
▁52	-10.5211
▁보고서에	-10.5221
▁홍수로	-10.523
▁사태에	-10.5235
▁제공할	-10.5237
▁해병	-10.5243
X	-10.5245
햄	-10.5246
▁구조대원들	-10.5248
▁부상으로	-10.5248
장의	-10.5249
▁가게	-10.5249
▁의사들	-10.5264
▁관여	-10.5265
▁세력이	-10.5266
▁일치	-10.5267
▁여학생	-10.527
av	-10.5271
▁시한	-10.5272
▁출판	-10.5274
▁러시아는	-10.5278
졌으며	-10.5282
▁공격은	-10.5286
▁뒤에	-10.5289
험	-10.5289
FA	-10.5297
▁증	-10.5302
▁구역	-10.5311
Z	-10.5312
▁코미디	-10.5314
▁맞는	-10.5315
▁후진타오	-10.5315
▁선관위	-10.5315
▁펀드	-10.5315
▁국제공항	-10.5317
▁원칙	-10.5317
▁소탕	-10.5317
▁남극	-10.5318
▁1996	-10.5318
므로	-10.5321
▁브랜드	-10.5322
▁체중	-10.5323
▁특수	-10.5323
▁음주	-10.5327
▁배후	-10.5327
▁진단	-10.5327
▁경험이	-10.5329
▁보고서에따르면	-10.533
▁물러나	-10.5335
▁화재로	-10.5337
▁기온	-10.5337
▁성장률	-10.5338
▁문제의	-10.5344
▁일으켰다	-10.5347
▁화해	-10.535
▁부산	-10.5351
▁법무장관	-10.5357
▁일어났다	-10.5358
▁쓸	-10.5367
▁화상	-10.5368
▁사실은	-10.537
▁중앙일보	-10.5373
ty	-10.5374
으면서	-10.5379
AN	-10.538
▁날개	-10.5385
▁사용했다	-10.5387
▁년간	-10.5392
▁행정	-10.5398
분에	-10.54
▁결과에	-10.5402
버스	-10.5402
ell	-10.5405
▁직장	-10.5405
원이	-10.5406
▁변호사가	-10.5407
점이	-10.5408
▁하나인	-10.5415
▁결승	-10.5418
▁받는다	-10.5418
▁~	-10.5419
▁양국간	-10.5425
시스템	-10.5428
않게	-10.5429
▁코스	-10.5431
▁급속	-10.5432
▁여론조사에서	-10.5433
▁위협이	-10.5434
▁여성과	-10.5434
▁수리	-10.5435
▁이란과	-10.5439
레나	-10.544
▁웃	-10.5443
▁신문사	-10.5446
▁남쪽	-10.5456
전에서	-10.5457
ive	-10.5458
▁낼	-10.5459
▁기대한다	-10.546
▁바라	-10.5461
▁골프	-10.5461
▁대피했다	-10.5461
시킨다	-10.5464
▁밝히	-10.5465
념	-10.5465
▁보잉	-10.5465
▁발생하고	-10.5477
▁정지	-10.5479
점으로	-10.548
▁통계	-10.5483
▁이란에	-10.5483
▁정치인들	-10.5485
▁폭발이	-10.5487
괴	-10.5487
춘	-10.5491
▁내무부는	-10.5492
켈	-10.5493
▁뭄바이	-10.5494
▁연쇄	-10.5494
▁탱크	-10.5494
▁섭취	-10.5494
▁택시	-10.5494
▁교통사고	-10.5495
▁과격	-10.5495
▁구멍	-10.5495
▁소규모	-10.5496
▁할머니	-10.5496
▁1993	-10.5497
▁폭설	-10.5497
▁줄리아니	-10.5498
▁라덴	-10.5498
▁사생활	-10.5499
▁관측	-10.55
▁벨기에	-10.55
단은	-10.5501
▁보존	-10.5501
▁PPP	-10.5502
▁구조대	-10.5503
▁초안	-10.5504
▁감바리	-10.5506
▁진행자	-10.5507
▁악어	-10.5509
▁꼭	-10.551
▁조류	-10.551
▁제작한	-10.5519
▁가방	-10.5522
▁수퍼	-10.5526
▁경호원	-10.553
▁국적	-10.5537
▁여사는	-10.5538
▁에도	-10.5538
▁46	-10.5541
구를	-10.5542
▁공기	-10.5543
▁피부	-10.5544
▁주장한	-10.555
▁올라가	-10.555
▁방송사	-10.5554
▁벽	-10.5556
▁1%	-10.5576
▁아메리카	-10.5577
na	-10.558
많은	-10.5581
니스	-10.5582
▁자신과	-10.5587
▁근처에서	-10.5588
▁모리	-10.5589
겠습니다	-10.559
▁참석할	-10.5592
▁투쟁	-10.5592
▁맡고	-10.5593
▁수립	-10.5597
▁했습니다	-10.5601
▁남부에서	-10.5606
▁생기	-10.5608
▁자택	-10.561
▁통신이	-10.561
콜	-10.561
덕	-10.5612
▁주위	-10.5619
▁GM	-10.563
▁700	-10.563
▁선포했다	-10.5635
▁파도	-10.5637
▁높아	-10.5638
사업	-10.565
▁록	-10.5652
시위	-10.5652
▁펼쳐	-10.5653
▁극장	-10.5654
켜	-10.5655
▁비난하는	-10.5658
▁북극	-10.566
▁신사	-10.5662
Ch	-10.5665
이었습니다	-10.5667
▁관계에	-10.5667
시티	-10.567
국민	-10.5671
▁착수	-10.5672
▁출산	-10.5673
▁China	-10.5676
▁돕기	-10.5676
▁무슬림	-10.5676
▁밴드	-10.5676
▁재검토	-10.5676
▁횡령	-10.5676
▁테일러	-10.5676
▁가벼	-10.5676
▁침공	-10.5676
▁다시한번	-10.5676
민감한	-10.5677
▁포럼	-10.5677
▁지붕	-10.5678
▁예멘	-10.5678
▁농업	-10.5678
▁사용하지	-10.5678
▁황금	-10.5678
▁아이폰	-10.5679
▁1991	-10.5679
▁제출했다	-10.568
▁결함	-10.5681
▁기쁘다	-10.5683
▁모아	-10.5684
▁판정	-10.5685
▁기자들	-10.5688
▁종식	-10.5688
▁반복	-10.5689
▁적발	-10.569
▁출	-10.5693
▁재임	-10.5695
▁미국인들이	-10.5695
▁개정안	-10.5698
▁마친	-10.5698
나무	-10.5701
▁비교적	-10.5703
▁하나로	-10.5703
▁상호	-10.5709
▁뇌물	-10.5709
▁진행되는	-10.5713
▁늘어나	-10.5715
▁수사관	-10.5718
▁번째로	-10.5719
▁곳이다	-10.5728
▁북쪽으로	-10.5733
금지	-10.5733
▁인원	-10.5734
▁수십명	-10.5735
77	-10.5739
▁총회	-10.5742
▁해도	-10.5745
▁재판관	-10.5747
▁생물	-10.5757
▁생각하지	-10.5762
▁전통적	-10.5764
▁근거로	-10.5765
조건	-10.5773
▁민족	-10.5773
▁취해	-10.5779
만개	-10.5782
특	-10.5785
▁중단했다	-10.5786
▁중이었다	-10.5788
▁회견	-10.5799
▁이용하는	-10.5799
측에	-10.5799
▁해안에서	-10.5802
7000	-10.5802
캐	-10.5804
▁세계적으로	-10.5804
▁수상한	-10.5805
▁따르	-10.5806
▁스톤	-10.5806
▁구체적	-10.5813
역사적인	-10.5815
ard	-10.5819
▁피해자들	-10.582
▁소식통이	-10.582
▁후보자	-10.5826
▁피랍	-10.5826
▁예상되	-10.5828
16	-10.5828
▁관계당국	-10.583
신문	-10.583
▁적십자	-10.5832
▁맡	-10.5838
▁여성들이	-10.585
탁	-10.585
▁조명	-10.5853
▁순위	-10.5853
▁지수	-10.5854
훈	-10.586
▁DVD	-10.5861
▁광범위	-10.5861
▁안전보장이사회	-10.5861
▁협약	-10.5861
▁메르켈	-10.5861
▁파나마	-10.5861
▁스트레스	-10.5861
▁봉송	-10.5861
▁월스트리트	-10.5861
▁억제	-10.5863
▁정찰	-10.5865
▁싸우	-10.5866
▁신규	-10.5867
▁반박	-10.5876
▁자행	-10.5877
▁이륙	-10.5877
▁사우스캐롤라이나	-10.5877
▁제목	-10.5878
▁처해	-10.5881
▁치명적인	-10.5884
▁산타	-10.5891
▁고장	-10.5891
▁맛	-10.5892
▁뉴햄프셔	-10.5892
▁빼	-10.5892
▁거짓말	-10.5892
▁결과로	-10.5895
▁성직자	-10.5896
▁물이	-10.5899
▁정상화	-10.5899
▁요리	-10.5901
어로	-10.5902
▁성당	-10.5904
▁레드	-10.5905
혔다	-10.5908
▁예정인	-10.591
▁차지하고	-10.591
▁최고치	-10.5911
▁가족이	-10.5911
잘못된	-10.5913
▁많아	-10.5913
▁가졌	-10.5917
▁승리로	-10.5917
지수는	-10.5918
▁물에	-10.5922
▁복	-10.5924
▁센	-10.5925
정부는	-10.5928
▁확실	-10.5931
▁정전	-10.5938
음을	-10.5943
▁든	-10.5947
▁미치는	-10.5948
▁여러분	-10.5954
▁보여주고	-10.5957
▁끝나	-10.5957
었지만	-10.596
▁계속될	-10.5962
▁경관	-10.5964
▁프레	-10.597
▁IOC	-10.5972
▁합의한	-10.5974
▁단체가	-10.5976
▁미군과	-10.5978
▁출연한	-10.5981
닐	-10.5983
▁지점에서	-10.5986
헌	-10.5987
68	-10.5988
▁연구원들	-10.599
▁환호	-10.599
▁연행	-10.5993
84	-10.5993
규모	-10.5994
교육	-10.5997
민주당	-10.5999
있었다	-10.6001
▁적절	-10.6003
사와	-10.6009
▁데에	-10.601
▁국경지역	-10.6011
▁완	-10.6029
▁군은	-10.6041
▁보일	-10.6043
속도로	-10.6045
라이트	-10.6048
▁쏟아	-10.6048
▁식료품	-10.605
▁nuclear	-10.605
▁다큐멘터리	-10.605
▁왼쪽	-10.605
▁쿠웨이트	-10.605
▁전당대회	-10.605
▁과반수	-10.605
▁균형	-10.605
▁위안부	-10.605
▁롬니	-10.605
▁난민촌	-10.605
▁일어날	-10.605
▁완료	-10.6051
▁출두	-10.6051
▁귀환	-10.6052
▁표준	-10.6052
▁팝	-10.6052
▁검은	-10.6053
▁검문소	-10.6054
▁1995	-10.6054
긍정적인	-10.6055
▁항구	-10.6055
▁군사적	-10.6055
▁화려	-10.6056
▁비율	-10.6056
▁동생	-10.6057
▁인민	-10.6058
▁사용해	-10.6059
분만에	-10.6059
▁잭	-10.606
▁조언	-10.606
▁메이	-10.6061
▁먼	-10.6066
▁중단할	-10.6066
▁숲	-10.6066
▁공산주의	-10.6067
▁품	-10.6071
▁이름이	-10.6071
▁모임	-10.6072
▁`	-10.6072
▁손에	-10.6081
▁나에게	-10.6081
▁지원할	-10.6082
▁수배	-10.609
▁스타디움에서	-10.609
▁조용	-10.6091
▁있어야	-10.6094
▁골드	-10.6098
단계	-10.6098
▁척	-10.6098
▁범	-10.6098
▁하미	-10.6098
버린	-10.61
▁총재는	-10.6101
▁냈다	-10.6102
380	-10.6104
에게서	-10.6105
▁달러화	-10.6108
▁노리	-10.6111
▁입을	-10.6113
▁over	-10.6115
▁와이	-10.612
▁예술	-10.6124
ho	-10.6128
▁주장한다	-10.6135
▁펼치	-10.6138
▁쓰고	-10.6138
▁당국에	-10.6138
▁정원	-10.6149
▁선원	-10.6151
킨스	-10.6151
▁달린	-10.6157
기록	-10.6161
▁실시할	-10.6165
▁무게	-10.6175
끼	-10.6178
않	-10.6184
▁후보인	-10.6186
▁얼	-10.6188
장과	-10.6189
▁충돌이	-10.619
돈	-10.6192
비용	-10.6205
▁n	-10.6211
▁설	-10.6218
▁제정	-10.6219
▁부위	-10.622
호가	-10.622
▁선보	-10.6225
▁운전자	-10.6228
첸	-10.6238
둥	-10.6239
▁출입	-10.6239
▁십	-10.6239
님	-10.624
랭	-10.6242
▁듣고	-10.6242
▁먹이	-10.6242
▁않았던	-10.6242
▁얻고	-10.6242
▁없게	-10.6242
▁없고	-10.6242
▁이산화탄소	-10.6242
▁캐릭터	-10.6242
▁펠로시	-10.6242
▁확장	-10.6242
▁국제원자력기구	-10.6242
▁매니저	-10.6242
▁받아들여	-10.6242
▁에콰도르	-10.6242
▁흥미	-10.6242
▁퇴임	-10.6242
▁붙잡	-10.6242
▁득표율	-10.6243
▁플라	-10.6243
▁침대	-10.6243
▁낮추	-10.6244
▁복역	-10.6244
▁쉽지	-10.6244
▁떠난	-10.6246
▁레이건	-10.6246
▁케이트	-10.6249
▁일련	-10.625
▁해리포터	-10.625
▁범행	-10.6251
▁조지아주	-10.6253
▁상영	-10.6255
▁당초	-10.6256
▁투르	-10.6258
져야	-10.6259
▁후보와	-10.6259
▁매체	-10.6262
▁승려들	-10.6263
▁인력	-10.6265
▁뛰	-10.6266
▁AT	-10.6267
▁운영하고	-10.6268
▁신조	-10.6271
▁회원국들	-10.6272
▁코끼리	-10.6274
▁64	-10.6275
스테	-10.6275
▁생산량	-10.6283
▁아난	-10.6283
페이스	-10.6286
▁계속되는	-10.6289
▁남성은	-10.6289
▁촬영한	-10.6289
▁다르다	-10.629
▁부상당	-10.6293
▁기차	-10.6294
위안	-10.6295
▁텍사스주	-10.6297
▁운전사	-10.6298
▁전달했다	-10.63
병원	-10.6301
▁공개됐다	-10.6302
시켰다고	-10.6303
▁늘리	-10.6306
▁창문	-10.6308
▁어렵다	-10.6316
▁자랑	-10.6318
화된	-10.6323
▁발표하고	-10.6328
원들이	-10.6329
▁미국인들	-10.6332
라면	-10.6337
▁조치는	-10.6337
▁확신한다	-10.6338
▁무어	-10.6338
▁조건으로	-10.6338
▁서장	-10.6347
▁뉴욕시	-10.6347
▁정의	-10.6352
▁요금	-10.6353
▁보게	-10.6364
▁발견되었다	-10.637
▁만일	-10.6376
▁고객들	-10.6378
▁칼리	-10.6379
ca	-10.6379
▁촉발	-10.6381
▁발견한	-10.6383
▁소식에	-10.6389
IAEA	-10.639
▁지도자가	-10.639
▁한나라당은	-10.6391
48	-10.6395
쪽으로	-10.6395
▁론	-10.6397
▁부모들	-10.6401
▁인근에서	-10.6403
전쟁	-10.6417
되거나	-10.6421
타임	-10.6424
▁거절했다	-10.6427
▁작업에	-10.6428
렐	-10.6435
▁우리에게	-10.6436
틸	-10.6437
Q	-10.6438
넨	-10.6438
▁from	-10.6438
▁샌디에이고	-10.6438
▁일으킬	-10.6438
룸	-10.6438
▁외무성	-10.6438
▁마라톤	-10.6438
▁여겨지	-10.6438
▁어깨	-10.6438
▁상륙	-10.6439
▁졸업	-10.6439
▁생방송	-10.644
▁회담의	-10.6441
▁창출	-10.6441
▁탄생	-10.6442
▁심의	-10.6442
▁몰려	-10.6443
▁끝날	-10.6443
▁최저치	-10.6444
▁드러냈다	-10.6445
▁분량	-10.6445
▁교도소에	-10.6446
▁방출	-10.6446
▁거부권	-10.6447
▁1960	-10.6448
▁음성	-10.6448
▁월가	-10.6449
▁분석가들은	-10.645
▁이뤄진	-10.645
▁밝혀진	-10.6454
▁행사에	-10.6454
▁발포	-10.6455
▁스턴	-10.6457
▁진보	-10.6459
▁방문하는	-10.6459
▁알렸다	-10.6461
것이	-10.6468
▁마리아	-10.6469
▁증세	-10.6474
▁오하이오주	-10.6475
▁거부하	-10.6476
63	-10.6481
▁상태이다	-10.6483
시오	-10.6484
▁기여	-10.6485
▁비난하며	-10.6488
▁예정이었다	-10.6496
▁식사	-10.6499
26	-10.6501
▁테니스	-10.6501
▁깊이	-10.6507
▁일본에	-10.6509
▁자택에서	-10.6513
▁동의했다	-10.6522
▁th	-10.6523
▁브리	-10.6527
▁미디어	-10.6527
▁유럽에서	-10.6528
워터	-10.6531
tor	-10.6532
▁무장대원	-10.6535
▁권	-10.654
줬다	-10.6546
▁포함돼	-10.6548
▁한국인들	-10.6558
▁화물	-10.6558
▁틀	-10.656
▁카불	-10.6571
▁싱	-10.6573
▁최근에	-10.6574
▁정책에	-10.6575
스럽게	-10.6576
▁하루에	-10.6578
지역에	-10.659
▁상태에서	-10.6592
김	-10.6594
NASA	-10.6595
▁용기	-10.6595
▁외국인들	-10.6595
동맹	-10.6595
▁무리	-10.6597
▁토지	-10.6597
데스	-10.6598
바로	-10.6602
▁하락한	-10.6607
▁치러지	-10.6609
앞으로	-10.661
연방	-10.6611
▁불리	-10.6611
수술	-10.6611
21	-10.6613
BA	-10.6619
식이	-10.6623
▁화요일에	-10.6632
▁긍정적	-10.6632
롬	-10.6632
럽	-10.6632
▁여지	-10.6635
▁느낄	-10.6638
▁프리미어리그	-10.6638
▁자카르타	-10.6638
▁new	-10.6638
▁줄기세포	-10.6638
▁유혈사태	-10.6638
▁특징	-10.6638
▁샘플	-10.6638
▁탐험	-10.6638
▁앤드류	-10.6639
▁로딕	-10.6639
▁계좌	-10.6639
▁MBC	-10.6639
▁빌딩	-10.664
▁밝혔지만	-10.664
▁실업률	-10.6642
▁표결	-10.6642
버트	-10.6642
▁다국적군	-10.6644
▁국가들은	-10.6645
에이커	-10.6647
▁테러와	-10.6648
▁서양	-10.665
▁보조	-10.6651
▁원래	-10.6654
▁선임	-10.6655
▁발행	-10.6656
당했다	-10.6656
▁서울시	-10.6658
소리	-10.6658
▁문제와	-10.6664
▁법안은	-10.6666
▁동일한	-10.6669
▁벗	-10.6672
▁방법은	-10.6678
▁소매	-10.6679
▁외치	-10.668
▁교황은	-10.668
▁클라	-10.668
▁겨	-10.6682
▁소유하고	-10.6683
▁해당하는	-10.6683
▁취한	-10.6686
▁돌고래	-10.6686
기자	-10.6697
▁국기	-10.6701
▁2500	-10.6702
▁기부	-10.6703
▁로스	-10.6707
▁코커스	-10.6716
▁지지한다	-10.6719
▁실종자	-10.6727
행사	-10.6728
▁해상	-10.673
정부가	-10.6735
▁국가에서	-10.6741
었을	-10.6742
▁아르	-10.6746
▁아들이	-10.6761
▁촉구하	-10.6761
▁반영	-10.6779
씨가	-10.6781
▁실시했다	-10.6785
▁발표됐다	-10.6787
▁학교에	-10.6787
▁5%	-10.6789
▁알지	-10.6795
BC	-10.6797
▁전부	-10.6798
미국은	-10.6798
▁바라는	-10.6798
▁해주	-10.6799
▁국가로	-10.68
됩니다	-10.6801
▁페이지	-10.6802
핵	-10.6803
힘	-10.6805
35	-10.6805
1000	-10.6805
감독	-10.6813
▁청사	-10.6814
▁멜	-10.6817
▁일본인	-10.682
▁마을에서	-10.6822
▁유전	-10.6822
▁로드	-10.6824
▁팀이	-10.6826
mp	-10.6829
4000	-10.6832
24	-10.6833
잉	-10.6838
▁pro	-10.684
헨	-10.6842
▁마흐디	-10.6842
▁멤버	-10.6842
▁애완견	-10.6842
▁윔블던	-10.6842
▁프랭크	-10.6842
▁항공우주국	-10.6842
▁힘입어	-10.6842
넌	-10.6842
▁예를들어	-10.6842
▁좌절	-10.6842
▁검증	-10.6842
▁정거장	-10.6842
▁잇따	-10.6842
▁노르웨이	-10.6842
▁브리핑	-10.6842
▁암컷	-10.6842
2006.01	-10.6843
▁녹음	-10.6844
▁자리에	-10.6844
▁화합	-10.6844
▁않았으나	-10.6844
▁밝혔으며	-10.6845
▁쿠퍼	-10.6845
▁오마르	-10.6845
▁영화배우	-10.6845
▁포착	-10.6846
▁종료	-10.6847
▁돌파	-10.6847
▁내려졌다	-10.6847
▁후보들	-10.6847
▁통증	-10.6849
▁잡스	-10.685
▁매달	-10.6852
▁세트	-10.6852
이런	-10.6854
▁개편	-10.6855
▁리처드슨	-10.6856
▁부부가	-10.6856
▁상원의원과	-10.6857
▁선수가	-10.6858
▁이슬람교	-10.6858
▁키우	-10.6861
▁접전	-10.6863
▁격렬한	-10.6865
▁사설	-10.6868
▁재직	-10.6868
▁열렸다	-10.6872
▁양측은	-10.6874
▁위대	-10.6875
내용	-10.6876
▁HIV	-10.6881
▁부실	-10.6885
내내	-10.6887
▁화장	-10.6895
리그	-10.69
▁1500	-10.6901
▁라이언	-10.6903
▁보이며	-10.6906
17	-10.6907
▁포장	-10.6911
▁헬	-10.6916
39	-10.6916
▁판다	-10.6916
▁not	-10.6917
▁득점	-10.6923
▁가족은	-10.6925
▁최대의	-10.6925
▁법안에	-10.6927
하우스	-10.6927
▁요청을	-10.6935
▁추세	-10.6936
▁협상에	-10.6937
▁중심가	-10.6938
▁정권이	-10.694
▁소식은	-10.6943
▁이용한	-10.6944
▁투표에	-10.6948
▁비행사	-10.6953
커스	-10.6954
▁상승한	-10.6954
▁기울이	-10.6955
▁다이	-10.6961
장으로	-10.6964
▁파운드	-10.6967
보호	-10.6972
▁소식통	-10.6976
▁지분	-10.6976
76	-10.6978
▁NATO	-10.6981
▁FRB	-10.6986
ta	-10.6987
겼	-10.6995
▁목표는	-10.6996
응	-10.7004
▁받아들이	-10.7005
▁살해했다	-10.7008
▁커지	-10.7012
리안	-10.7014
900	-10.7015
폭탄	-10.7015
▁카라	-10.7015
프랑스	-10.7017
▁장군은	-10.7018
▁장착	-10.7019
연구	-10.7019
▁온도	-10.702
▁막아	-10.7022
▁생각이	-10.7022
평화	-10.7025
▁운명	-10.7031
렸으며	-10.7032
카르	-10.7033
첼	-10.7035
▁승무원들	-10.7041
▁잡아	-10.7041
꾼	-10.7042
렘	-10.7043
▁프라이머리에서	-10.7044
▁감소했다	-10.7044
▁In	-10.7047
첨	-10.7048
짝	-10.705
▁세웠다	-10.705
▁않았고	-10.705
▁없습니다	-10.705
▁피라미드	-10.705
▁마돈나	-10.705
▁침략	-10.705
▁배터리	-10.705
▁객실	-10.705
▁데이빗	-10.705
▁서식지	-10.705
▁라파엘	-10.7051
▁여섯	-10.7051
▁졸리	-10.7051
▁빠지	-10.7051
2005.09	-10.7052
▁his	-10.7052
▁비틀즈	-10.7052
▁탈락	-10.7052
▁몰고	-10.7052
▁1992	-10.7053
▁자선단체	-10.7053
▁금액	-10.7054
▁65	-10.7054
▁물러	-10.7055
▁테러조직	-10.7056
▁산책	-10.7058
▁차별	-10.7058
▁아마디	-10.7059
▁약화	-10.706
▁인형	-10.7061
지방	-10.7062
▁전국적으로	-10.7065
▁불구	-10.7065
▁않는다면	-10.7065
▁본토	-10.7067
▁고급	-10.7068
▁강행	-10.7068
▁government	-10.7069
▁보급	-10.7071
▁자동	-10.7073
▁30%	-10.7077
▁상당히	-10.7079
▁남용	-10.7082
▁유산	-10.7083
▁회의에	-10.7083
▁광장	-10.7085
▁댄	-10.7091
▁유인	-10.7092
▁4000	-10.7094
▁담은	-10.7096
▁등으로	-10.7106
▁58	-10.7108
▁단체인	-10.711
▁방향으로	-10.711
▁제리	-10.7115
▁플로리다주	-10.7117
98	-10.7118
▁건물이	-10.7123
▁BA	-10.7133
▁사실에	-10.7136
▁일이다	-10.7137
▁카르	-10.7149
▁88	-10.7153
▁손해	-10.7153
자유	-10.7161
▁흔	-10.7173
to	-10.7176
▁약세	-10.7179
공사	-10.7181
▁처한	-10.7181
때까지	-10.7187
▁포함됐다	-10.7188
▁유도	-10.719
▁지휘관	-10.7196
▁국가들이	-10.7201
der	-10.7202
혔	-10.7205
▁수면	-10.7206
카드	-10.7207
ver	-10.7212
▁sh	-10.7218
▁지지자들이	-10.7223
.9%	-10.7227
탈레반	-10.7235
▁수위	-10.7236
▁53	-10.7241
▁강세	-10.7242
▁제시했다	-10.7248
ie	-10.7252
흘	-10.7258
▁글로	-10.726
▁관타나모	-10.7263
▁오토바이	-10.7263
▁우주왕복선	-10.7263
▁울포위츠	-10.7263
▁파바로티	-10.7263
▁플라스틱	-10.7263
▁자유무역협정	-10.7263
▁퍼거슨	-10.7263
社	-10.7263
큐	-10.7263
▁벌써	-10.7263
▁경기부양책	-10.7263
▁헌법재판소	-10.7264
▁롤링	-10.7264
▁낙태	-10.7264
▁넘겨	-10.7265
▁드러내	-10.7266
▁저희	-10.7266
▁점검	-10.7267
▁오른쪽	-10.7269
▁상대방	-10.727
▁NK	-10.727
위성	-10.7272
▁백신	-10.7274
▁집권당	-10.7275
▁멀리	-10.7277
▁연계	-10.7278
▁군함	-10.7282
▁도심	-10.7283
▁실린	-10.7285
후보	-10.7287
▁표면	-10.7287
▁죽음을	-10.7288
ab	-10.7291
▁존경	-10.7294
▁모금	-10.7295
▁운동가들	-10.7296
▁요구하며	-10.7299
▁촉진	-10.7304
▁나이트	-10.7304
▁지원하는	-10.7307
코프	-10.7308
트라	-10.7309
▁중요성	-10.7312
▁못했	-10.7313
포트	-10.7316
▁자치	-10.7317
▁계속된	-10.732
▁다음주	-10.7326
▁법원에서	-10.7327
▁이틀간	-10.7329
▁내려진	-10.7331
▁딸이	-10.7333
복을	-10.7336
85	-10.7346
▁햄	-10.7348
타르	-10.7354
▁제보	-10.7355
사진	-10.7357
▁로브	-10.7363
어진	-10.7364
▁참여할	-10.7365
▁대통령직	-10.7369
▁수행하	-10.737
▁유지하고	-10.737
제품	-10.7371
▁갈라	-10.7372
▁각자	-10.7375
▁위원	-10.7376
▁모건	-10.7381
▁대전	-10.739
▁남자는	-10.7396
▁브라운은	-10.7397
▁전역에서	-10.7397
▁대학생	-10.7397
분께	-10.7406
베리	-10.7407
▁기소된	-10.7408
▁계기	-10.7414
▁승객들	-10.7415
▁압	-10.7416
▁인질들을	-10.7417
▁대학에서	-10.7418
아나	-10.7418
▁UEFA	-10.7419
▁제공한	-10.7423
91	-10.7425
▁여부에	-10.7425
위원	-10.7429
소한	-10.7432
▁본다	-10.7434
22	-10.7435
값	-10.7452
▁제출한	-10.7452
▁향상	-10.7454
`	-10.7454
▁지대	-10.7455
서비스	-10.7457
▁용의자로	-10.7463
▁콜로라도	-10.7467
효	-10.7471
▁출생	-10.7472
▁뉴욕주	-10.7473
촌	-10.7475
▁제이	-10.7475
웬	-10.7476
컬	-10.7477
▁Obama	-10.748
▁경기침체	-10.748
▁루아얄	-10.748
▁싶지	-10.748
▁옮기	-10.748
▁허커비	-10.748
밍	-10.748
▁뮤지컬	-10.748
▁아테네	-10.748
▁포르노	-10.748
톨	-10.748
▁게릴라	-10.748
▁옐친	-10.7481
▁징후	-10.7481
▁시라크	-10.7481
▁불가리아	-10.7481
▁본격적	-10.7481
▁벽돌	-10.7481
▁2005.10	-10.7481
▁공룡	-10.7481
▁관람	-10.7481
▁있었습니다	-10.7483
▁살아남	-10.7483
▁탄광	-10.7483
▁함유	-10.7484
베르토	-10.7487
▁형식	-10.749
▁승부	-10.7491
▁남편이	-10.7492
▁조절	-10.7493
American	-10.7493
per	-10.7494
▁국방성	-10.7495
▁자신감	-10.7496
▁공판	-10.7496
▁기분	-10.7498
▁점거	-10.7498
▁실무	-10.7498
▁연간	-10.7499
▁소동	-10.7503
▁통보	-10.7505
▁접수	-10.7505
▁한국은행	-10.7508
▁지지하고	-10.7509
▁희망한다	-10.751
▁얼마전	-10.751
▁북부에	-10.7512
▁벌어졌다	-10.7513
▁범위	-10.7513
자료	-10.7516
▁사용하고	-10.7522
▁1,000	-10.7522
▁뱀	-10.7522
▁사체	-10.7523
▁호소했다	-10.7523
▁신분	-10.7523
아직	-10.7525
▁케이	-10.7527
▁좋아하는	-10.7527
▁내렸	-10.7529
▁취했다	-10.753
▁발표했습니다	-10.7531
▁140	-10.7538
▁겸	-10.7538
▁갖는	-10.7542
▁고려하고	-10.7545
저는	-10.7547
▁떨어지	-10.7552
▁7000	-10.7553
(1	-10.7554
75	-10.7556
▁브로	-10.7558
▁PKK	-10.7561
▁데일리	-10.7563
▁테러리스트들	-10.7565
▁노력이	-10.7567
▁승인했다	-10.7569
▁나선	-10.7569
▁휘	-10.7571
▁곰	-10.7577
▁몸에	-10.7583
▁불어	-10.7587
▁포함된	-10.7587
55	-10.7589
▁성명은	-10.7589
과정	-10.7594
▁베를린	-10.7595
ure	-10.7597
▁도시인	-10.7599
▁해소	-10.76
58	-10.7607
▁지원하고	-10.7614
28	-10.7618
iz	-10.7629
▁con	-10.7636
과학	-10.7639
▁털	-10.7642
회전	-10.7645
업자들	-10.7653
▁직원이	-10.7662
▁대법원장	-10.7664
IS	-10.7668
늘	-10.7672
휴	-10.7674
▁동맹국	-10.7676
▁열고	-10.7677
▁떼	-10.7679
89	-10.7682
아프간	-10.7683
어떤	-10.7683
사령관	-10.7684
금융	-10.7686
▁조사한	-10.769
퀴	-10.7696
생산	-10.7699
▁지불하	-10.7699
▁매춘	-10.77
▁금메달	-10.7703
▁디자이너	-10.7703
▁아닙니다	-10.7703
▁지지선언	-10.7703
▁카트리나	-10.7703
▁멈추	-10.7703
▁흘러	-10.7703
▁징계	-10.7703
▁보이콧	-10.7703
▁이자율	-10.7703
2006.08	-10.7704
▁개막	-10.7704
▁디스크	-10.7705
▁알렉스	-10.7705
강전에서	-10.7705
▁막대한	-10.7705
▁떠날	-10.7706
▁경향	-10.7707
▁영양	-10.7707
▁사이클	-10.7708
▁오스카	-10.7708
▁러드	-10.7709
▁핵개발	-10.771
▁정착	-10.7711
▁축	-10.7711
▁않으며	-10.7711
way	-10.7711
▁상담	-10.7712
▁인터	-10.7714
▁인공	-10.7716
업계	-10.7716
▁래리	-10.7717
▁서류	-10.7717
▁미첼	-10.7718
▁준수	-10.7718
▁장교	-10.7718
지원	-10.7719
▁통과시켰다	-10.7719
▁타임	-10.7719
ary	-10.7719
▁애리조나	-10.7721
▁도청	-10.7722
▁쏘	-10.7723
▁발발	-10.7724
▁부당	-10.7726
▁탄소	-10.7732
▁포함하여	-10.7733
▁선수로	-10.7735
▁하자	-10.7737
▁참석하지	-10.7737
▁정계	-10.7739
▁39	-10.7739
▁주연	-10.7748
▁시인	-10.7749
▁흔적	-10.7751
▁흔들	-10.7753
▁챔피언십	-10.7757
▁정보부	-10.7761
▁플레이어	-10.7764
▁기상청	-10.7776
▁160	-10.7781
▁서서	-10.7783
ish	-10.7784
스런	-10.7787
▁에어	-10.7787
2000	-10.7788
▁확산되고	-10.7789
▁56	-10.7792
에르	-10.7793
야드	-10.7795
인데	-10.7798
▁바스라	-10.7804
▁무고	-10.7804
min	-10.7807
명인	-10.781
▁불이	-10.7811
▁V	-10.7811
객들	-10.7812
▁탑승객	-10.7814
▁래	-10.7816
44	-10.782
ha	-10.7824
스턴	-10.7825
ite	-10.7826
▁지도자는	-10.7826
▁레바논군	-10.7827
▁보도에	-10.7833
다란	-10.7835
▁모르	-10.7836
▁건강이	-10.7837
▁WHO	-10.7837
요원	-10.7838
▁풀어	-10.784
▁정상회담을	-10.7841
▁어렵	-10.7843
93	-10.7845
▁정상들	-10.7846
▁43	-10.7848
▁밝혔	-10.7849
▁동물들	-10.7856
죄	-10.7859
▁게리	-10.7859
▁입었	-10.7864
▁풍	-10.7872
▁테러에	-10.7873
▁철저	-10.7879
▁건너	-10.7884
▁유기	-10.7891
▁옥	-10.7897
▁당해	-10.7897
▁아메리칸	-10.7901
▁미국으로	-10.7903
▁일이라고	-10.7906
률이	-10.7907
널리	-10.7907
▁메일	-10.7913
앤	-10.7915
▁필요로	-10.7915
자동차	-10.7916
▁준비하고	-10.7916
범죄	-10.7917
▁악화되	-10.7918
▁장관과	-10.7926
▁에베레스트	-10.7927
왈	-10.7928
▁쓰레기	-10.7929
▁아름다	-10.7929
겁	-10.793
냉	-10.793
▁베네딕	-10.793
▁오클라호마	-10.793
▁이브라힘	-10.793
▁찾지	-10.793
▁최첨단	-10.793
▁평화유지군	-10.793
▁히틀러	-10.793
▁로드리게스	-10.793
▁심장마비	-10.793
▁의약품	-10.793
셨	-10.793
▁압바스	-10.793
▁따뜻	-10.793
▁빼앗	-10.793
▁중남미	-10.793
▁스크린	-10.793
▁아마디네자드	-10.793
▁2008.10	-10.793
▁인터폴	-10.793
▁신장	-10.7931
▁터널	-10.7931
2007.12	-10.7931
▁가짜	-10.7931
▁품목	-10.7931
▁NBA	-10.7932
▁회수	-10.7933
▁술집	-10.7933
▁연례	-10.7933
▁거짓	-10.7934
▁세탁	-10.7934
▁들어갈	-10.7934
▁1989	-10.7935
▁계산	-10.7935
▁이루어진	-10.7935
▁새롭	-10.7935
▁풍부	-10.7936
▁t	-10.7936
▁구름	-10.7938
▁채취	-10.7939
▁벗어	-10.794
▁조항	-10.794
▁단행	-10.7941
▁돌려	-10.7943
▁발급	-10.7946
▁당국자들	-10.7947
▁대대적	-10.7948
▁휴대	-10.7952
▁거주하	-10.7955
▁뿐이다	-10.7955
Mar	-10.7955
▁에티오피아	-10.7956
▁출동	-10.7961
▁스파이	-10.7962
▁언급하며	-10.7963
▁영화에	-10.7964
▁보건부	-10.7965
노조	-10.7967
▁변호	-10.7968
▁신화	-10.7968
▁해체	-10.7969
▁임대	-10.797
▁미스	-10.7975
▁테러단체	-10.7976
▁여행객들	-10.7976
▁경비원	-10.7976
▁코치	-10.7978
▁결승전에서	-10.7983
인들에게	-10.7984
▁문구	-10.7985
▁엘리	-10.7986
▁동료들	-10.7989
▁공격했다	-10.799
▁트레	-10.7995
▁되며	-10.8
해달라	-10.8
곳에	-10.8007
▁있을지	-10.8011
▁알려	-10.8013
▁73	-10.8013
▁요원들	-10.8014
▁하나는	-10.802
▁달간	-10.802
ance	-10.8021
▁곳이	-10.8022
▁총장	-10.8023
주전	-10.8028
▁지식	-10.8033
▁조지아	-10.8033
▁원인이	-10.8034
▁서안	-10.8038
▁사진이	-10.8046
▁법정에서	-10.8054
▁경매에	-10.8062
29	-10.8065
▁5000	-10.8069
▁불가능	-10.8073
▁모르는	-10.8077
▁경로	-10.8081
▁했으나	-10.8084
▁넘기	-10.8084
▁포인트	-10.8085
▁up	-10.8089
old	-10.8093
▁프라	-10.81
원인	-10.81
▁달한다	-10.8102
▁기업의	-10.8108
▁가리	-10.811
룬	-10.8113
▁의상	-10.8114
▁조사할	-10.8132
▁잠재적	-10.8135
▁주최	-10.8138
▁소방	-10.8141
▁일어나는	-10.8141
논	-10.8142
▁학교에서	-10.8144
▁목격했다	-10.8145
ood	-10.8147
▁브라이언	-10.8151
해리포터	-10.8152
PPP	-10.8152
흉	-10.8153
쾌	-10.8158
교회	-10.816
▁모자	-10.8161
낭	-10.8162
5,000	-10.8163
▁again	-10.8163
▁고이즈미	-10.8163
▁뉴올리언스	-10.8163
▁느낌	-10.8163
▁두려움	-10.8163
▁망원경	-10.8163
▁맞이하	-10.8163
▁성추행	-10.8163
▁쇠고기	-10.8163
▁시나리오	-10.8163
▁우울증	-10.8163
▁조승희	-10.8163
▁노트북	-10.8163
▁무승부	-10.8163
▁기숙사	-10.8163
▁수류탄	-10.8163
▁허드슨	-10.8163
▁활발	-10.8163
▁당부했다	-10.8163
▁맥캔	-10.8163
▁교섭	-10.8163
▁저항세력	-10.8163
▁남아프리카	-10.8163
▁무덤	-10.8165
▁받아왔다	-10.8167
▁착수했다	-10.8167
▁아니지만	-10.8168
▁외환	-10.8168
▁체류	-10.8169
▁사육	-10.8169
▁소행성	-10.817
▁타밀	-10.817
▁구호단체	-10.8171
▁붙여	-10.8171
ast	-10.8171
▁모술	-10.8171
연패	-10.8171
었으나	-10.8172
ph	-10.8172
▁밀려	-10.8172
▁있은	-10.8173
▁고위급	-10.8175
스케	-10.8175
▁낮아	-10.8176
▁보인	-10.8177
▁무너지	-10.8177
▁열심	-10.8178
▁유통	-10.8179
▁구류	-10.818
▁49	-10.8181
▁위하여	-10.8183
▁벌여	-10.8184
▁전반적인	-10.8184
▁향한	-10.8187
▁바위	-10.8187
▁예약	-10.8187
▁저질렀다	-10.8188
▁사라졌다	-10.8189
▁빠졌다	-10.819
▁목사는	-10.819
▁모터	-10.8191
▁경비대	-10.8194
▁가중	-10.8196
46	-10.8197
▁작업이	-10.82
▁항의하	-10.82
▁경쟁력	-10.8203
▁움직임은	-10.8209
▁착용	-10.8211
▁좁	-10.8212
▁정리	-10.8215
▁때문이라	-10.822
곳에서	-10.8221
▁옹호	-10.8221
▁입지	-10.8224
▁동성애	-10.8227
플레	-10.8228
▁양국은	-10.8232
▁범인이	-10.8234
▁우세	-10.8236
▁사면	-10.8241
▁추구하	-10.8243
▁등에	-10.8243
▁중심지	-10.8244
▁열기	-10.8245
▁듀	-10.8245
▁as	-10.8246
has	-10.8248
▁공안	-10.8249
▁맨	-10.8254
▁X	-10.8255
▁상금	-10.8255
▁느끼고	-10.8256
게임	-10.8258
용으로	-10.8266
▁남성들	-10.8269
▁수행할	-10.8269
▁시인했다	-10.827
IC	-10.8271
▁부검	-10.8272
▁나타내는	-10.8272
▁군인들이	-10.8273
▁2%	-10.8278
▁담당자	-10.8282
▁은행에	-10.8282
▁가족들과	-10.8284
'(	-10.8284
▁성공한	-10.8285
▁반대로	-10.8287
▁회장이	-10.8287
tion	-10.829
호주	-10.8291
▁힘들다	-10.8295
▁바르	-10.83
04	-10.8305
mo	-10.8308
ong	-10.831
▁슈퍼	-10.8311
▁예술가	-10.8311
▁66	-10.8318
▁선거법	-10.8319
▁변호인	-10.8321
▁부족하다	-10.8324
▁부지	-10.8325
▁인권단체	-10.8331
▁St	-10.834
▁방문해	-10.8341
▁사용자들	-10.8343
▁출연했다	-10.8343
▁수여	-10.8348
▁분야에서	-10.8349
▁62	-10.8351
▁4%	-10.8351
▁섹스	-10.8351
os	-10.8358
▁제작사	-10.8359
▁are	-10.8361
▁시작했다고	-10.8368
▁기아	-10.837
▁해서	-10.8375
▁대가	-10.838
▁점수	-10.8381
▁농민들	-10.8387
었는지	-10.8388
쉽	-10.8393
최근	-10.8399
틱	-10.84
더스	-10.8401
▁높게	-10.8401
▁뉴델리	-10.8401
▁유죄판결	-10.8401
▁자르다리	-10.8401
▁펼친	-10.8401
▁플루토늄	-10.8401
▁확률	-10.8401
박근혜	-10.8401
찌	-10.8401
▁도요타	-10.8401
▁삭감	-10.8401
▁출구조사	-10.8401
▁취급	-10.8401
▁빅토리아	-10.8401
▁국립공원	-10.8401
▁알바니아	-10.8401
▁아프	-10.8401
▁부사장	-10.8402
▁talks	-10.8402
▁숨졌으며	-10.8403
▁out	-10.8403
▁증강	-10.8403
▁중앙은행	-10.8403
▁1987	-10.8404
카를로스	-10.8404
▁남학생	-10.8404
▁교외	-10.8404
됐는지	-10.8406
▁물고기	-10.8406
▁델타	-10.8408
▁하원의장	-10.8408
▁지역인	-10.8408
▁복원	-10.8409
▁완성	-10.8409
▁이내에	-10.8411
▁예배	-10.8411
▁왕세자비	-10.8412
▁비서실장	-10.8412
▁제시한	-10.8413
▁업적	-10.8413
베르	-10.8416
▁포터	-10.8418
▁모른다고	-10.8418
▁양쪽	-10.8419
ag	-10.8419
▁총통	-10.8419
27	-10.8423
▁행위에	-10.8423
▁물체	-10.8426
번호	-10.8428
▁맡았다	-10.8429
▁써	-10.8429
▁발휘	-10.8429
▁독일인	-10.843
▁배제	-10.8431
크리	-10.8432
▁상관	-10.8433
▁게시	-10.8439
▁차질	-10.8442
동물	-10.8444
전선	-10.8444
▁남아있다	-10.8448
▁도디	-10.8448
▁선고했다	-10.845
▁대서양	-10.8453
▁묻는	-10.8453
▁안내	-10.8454
▁양보	-10.8455
▁미래에	-10.8457
▁제공했다	-10.8462
▁영국과	-10.8465
▁퀸	-10.8465
▁Ar	-10.8469
▁남자아이	-10.8472
▁상당수	-10.8472
▁대리인	-10.8475
▁도구	-10.8475
마르	-10.8476
▁정기적	-10.8478
▁웨인	-10.8478
▁세부	-10.8488
97	-10.849
▁의원들이	-10.8491
어질	-10.8496
오르	-10.8497
▁고위관리	-10.8501
ti	-10.8502
키로	-10.8506
▁테리	-10.851
▁턱	-10.8514
▁남아있는	-10.8515
▁파리에서	-10.8516
▁인터넷에	-10.852
▁도착할	-10.8521
out	-10.8521
▁제치	-10.8523
▁건강에	-10.8524
▁참가자들	-10.8526
▁암시	-10.853
메르	-10.8531
▁두려워	-10.8531
바르	-10.8535
▁압수	-10.8537
▁하면서	-10.8539
ee	-10.8545
▁사고는	-10.8549
르게	-10.855
▁정기	-10.8554
▁상황이다	-10.8554
▁베리	-10.8559
▁진지	-10.8561
▁부분이	-10.8565
▁일대	-10.857
▁체포되었다	-10.8572
▁상을	-10.8573
ens	-10.8578
▁신도들	-10.8586
▁지위	-10.8588
▁익	-10.8591
▁남부에	-10.8593
▁시작으로	-10.8594
▁당황	-10.8596
▁나타났	-10.8606
▁강진이	-10.8607
96	-10.8611
▁석방됐다	-10.8615
시장에서	-10.8618
▁오리	-10.8625
년전	-10.8633
▁판결이	-10.8637
▁위험성	-10.8638
▁씨가	-10.8641
셉	-10.8642
▁사과했다	-10.8643
놈	-10.8644
븐	-10.8645
·	-10.8645
▁visit	-10.8645
▁나눴다	-10.8645
▁메드베데프	-10.8645
▁않았습니다	-10.8645
▁앞섰다	-10.8645
▁얻게	-10.8645
▁잃어버	-10.8645
▁최루탄	-10.8645
▁하이브리드	-10.8645
툴	-10.8645
▁해수면	-10.8645
▁첩보	-10.8645
▁온실가스	-10.8645
▁에드워드	-10.8645
됨에따라	-10.8645
▁교착상태	-10.8645
우드	-10.8645
8000	-10.8646
▁권총	-10.8646
▁Roh	-10.8646
▁its	-10.8646
▁수색작업	-10.8646
▁우간다	-10.8646
▁급습	-10.8646
▁데리고	-10.8646
▁호송	-10.8647
▁이뤄질	-10.8647
▁금융위기	-10.8647
팔레스타인	-10.8648
▁추격	-10.865
▁갈등	-10.865
▁송금	-10.8651
▁에릭	-10.8653
▁연출	-10.8653
▁지역사회	-10.8653
일부	-10.8653
▁줄이기	-10.8654
▁정밀	-10.8655
▁실현	-10.8655
▁60%	-10.8657
▁매매	-10.8658
▁포스트	-10.8658
▁개체수	-10.8659
▁톰슨	-10.8659
▁뚫	-10.866
▁물어	-10.8662
▁부처	-10.8664
▁보증	-10.8665
▁부품	-10.8665
▁사용된	-10.867
▁드러	-10.867
▁피난	-10.8671
▁실려	-10.8671
▁군사력	-10.8672
▁고안	-10.8673
▁해저	-10.8673
▁도살	-10.8678
경찰이	-10.868
▁20%	-10.8682
▁가난한	-10.8682
▁글로벌	-10.8686
▁가을	-10.8686
MDC	-10.8687
▁토대	-10.8697
▁공개하지	-10.87
AP	-10.8705
▁해적들	-10.8707
▁패스	-10.8708
▁너무나	-10.871
▁남성의	-10.8711
▁밝혀내	-10.8713
학과	-10.8717
대와	-10.8717
▁재미있	-10.8718
하에	-10.8719
▁열었다	-10.872
▁건물에	-10.8722
▁관객	-10.8726
▁남측	-10.8727
tr	-10.8727
▁상세	-10.8731
~2	-10.8732
▁경험을	-10.8732
▁개인적	-10.8733
간다	-10.8734
▁이름으로	-10.8747
▁출신으로	-10.875
▁시사	-10.8753
▁연구원은	-10.8755
▁위원장이	-10.8757
▁화가	-10.8758
▁셰	-10.8761
ail	-10.8761
49	-10.8762
▁인정하지	-10.8769
▁판매량	-10.8769
▁외상	-10.877
스텔	-10.8774
▁폰	-10.8775
▁방송에	-10.8777
▁종교적	-10.8779
▁이슈	-10.8783
▁크다	-10.879
?”	-10.8792
▁MD	-10.8802
▁담당자는	-10.8804
일에는	-10.8809
▁응답	-10.8809
ess	-10.8813
▁포기하	-10.8815
인권	-10.8818
▁중이며	-10.8819
월드	-10.8819
▁방콕	-10.8821
▁어려	-10.8822
받고	-10.8825
▁일어났	-10.8829
▁보냈	-10.8831
▁차지하는	-10.8834
▁필립	-10.884
▁일원	-10.8843
해준	-10.8863
수사	-10.8864
▁블루	-10.8874
um	-10.8874
▁금리를	-10.8876
당시	-10.8882
룰	-10.889
▁데이비스	-10.8894
▁IBM	-10.8895
▁국가비상사태	-10.8895
▁국제우주정거장	-10.8895
▁메릴랜드	-10.8895
▁서브프라임	-10.8895
FIFA	-10.8895
▁바티칸	-10.8895
▁파파라치	-10.8895
▁깨끗	-10.8895
▁주유소	-10.8895
▁윈도우	-10.8895
▁퇴진	-10.8895
▁좌석	-10.8895
▁자전거	-10.8895
▁야생동물	-10.8895
▁행렬	-10.8895
▁켈리	-10.8895
▁바꿀	-10.8895
▁데뷔	-10.8896
▁국민투표	-10.8897
▁긴밀	-10.8897
▁인접	-10.8897
▁동참	-10.8898
▁유괴	-10.8898
▁설계	-10.8899
▁다룬	-10.8899
▁재배치	-10.8899
▁가택	-10.89
▁서식하	-10.89
벨리	-10.8901
▁절약	-10.8903
▁단독	-10.8903
▁위생	-10.8904
▁통행	-10.8904
풀	-10.8904
▁추모	-10.8906
▁준다	-10.8906
성근	-10.8907
▁연임	-10.8908
▁일하고	-10.8909
31	-10.8913
▁야구	-10.8914
▁미리	-10.8914
▁2008.12	-10.8915
▁상병	-10.8915
유엔	-10.8916
▁무슨	-10.8917
해지고	-10.8918
▁불교	-10.8919
▁혼자	-10.8921
▁아는	-10.8924
▁출장	-10.8924
▁우즈	-10.8927
▁미성년자	-10.8938
▁진전이	-10.8942
본부	-10.8945
연승	-10.8946
▁공개한	-10.8948
▁IMF	-10.8949
▁김치	-10.8951
Ma	-10.8955
▁v	-10.8956
▁절도	-10.8957
▁가고	-10.8957
▁돌아와	-10.8962
▁노스	-10.8962
▁조선	-10.8964
▁권고했다	-10.8965
▁카리	-10.8966
▁공격한	-10.8967
▁양성	-10.8968
▁내정	-10.8971
▁공정한	-10.8975
▁방법에	-10.8975
▁동영상에서	-10.8977
▁반전	-10.8983
pr	-10.8984
된다면	-10.8984
▁전격	-10.8985
▁지구에	-10.8985
▁이뤄	-10.8987
▁안으로	-10.8987
▁지나가	-10.8991
▁고조	-10.8995
▁경주	-10.8998
ER	-10.9002
받은	-10.9004
▁매수	-10.9007
▁사라지	-10.9008
▁나치	-10.9012
▁휴일	-10.9016
북한이	-10.9016
마크	-10.9018
▁광부	-10.9021
▁결정적인	-10.9025
▁수감된	-10.903
▁61	-10.9034
▁궁	-10.9036
▁고무	-10.9042
미니	-10.9046
▁폴리	-10.9048
▁칭	-10.905
▁하에	-10.9053
달러로	-10.9053
▁연구에서	-10.9056
52	-10.9059
▁관객들	-10.9068
▁여기에	-10.907
치료	-10.9075
▁거부한	-10.9075
▁업체들	-10.908
월에는	-10.9085
▁탈레반이	-10.9092
▁고조되	-10.9093
▁공무원	-10.9093
▁참가한	-10.9103
▁국가에	-10.9105
▁68	-10.9106
▁직접적	-10.9106
▁얻었	-10.9108
▁유해	-10.9114
▁서쪽	-10.9115
▁국민의	-10.9126
▁네바다	-10.9139
▁현상이	-10.9143
▁파월	-10.9146
나와	-10.9147
컴	-10.9148
칙	-10.9148
튜	-10.9149
졸	-10.9149
▁믿는다	-10.9151
▁인명피해	-10.9151
▁창기라이	-10.9151
▁최우선	-10.9151
랩	-10.9151
▁세속주의	-10.9151
▁언덕	-10.9151
▁원자력	-10.9151
▁아스날	-10.9151
▁내무장관	-10.9151
▁시티그룹	-10.9152
▁AIG	-10.9152
▁회계	-10.9152
▁앨런	-10.9152
▁포셋	-10.9152
▁후임	-10.9152
▁Minister	-10.9153
▁교착	-10.9153
▁돌아갈	-10.9153
▁구조작업	-10.9153
▁국무총리	-10.9154
혹	-10.9154
▁1986	-10.9154
▁산맥	-10.9155
▁담고	-10.9155
▁개막식	-10.9155
바라데이	-10.9156
▁연말	-10.9156
▁창설	-10.9156
쳤으며	-10.9156
▁역임	-10.9157
▁존스턴	-10.9157
▁않습니다	-10.9159
▁환율	-10.9159
▁의심되는	-10.916
멜	-10.916
▁by	-10.916
▁심판	-10.9161
▁활동에	-10.9162
▁급증	-10.9163
▁시민권	-10.9163
▁던진	-10.9164
▁모집	-10.9165
▁아웅산수치	-10.9167
▁못했지만	-10.9167
▁파커	-10.9167
윤	-10.9169
▁수컷	-10.917
▁재활용	-10.9172
환경	-10.9172
▁시골	-10.9173
▁주거	-10.9175
▁72	-10.9176
▁전해지	-10.9176
▁던졌다	-10.9177
▁클	-10.9178
▁선거관리위원회	-10.9181
▁걸렸다	-10.9183
▁여러번	-10.9183
▁정유	-10.9184
▁도난	-10.9184
▁돌아왔다	-10.9185
▁윌슨	-10.9185
83	-10.9187
▁적합한	-10.9188
▁리버	-10.9188
▁소년이	-10.919
▁불가능하다	-10.919
세르	-10.9193
담당	-10.9195
▁진행될	-10.9195
▁투표율	-10.9196
분경	-10.9197
▁납치한	-10.92
하러	-10.9201
팬	-10.9202
▁출전하지	-10.9202
▁행동에	-10.9203
▁의견이	-10.9204
▁느끼	-10.9207
▁불과하다	-10.9208
▁미국인들은	-10.9208
▁해석	-10.9208
ice	-10.9211
▁산하	-10.9212
▁알라	-10.9213
▁un	-10.9216
▁발견되지	-10.9216
▁54	-10.9217
▁주류	-10.9219
CC	-10.9223
분야	-10.9224
▁덜	-10.9227
69	-10.9229
▁관련하여	-10.9231
▁루니	-10.9233
정치	-10.9234
05	-10.9236
▁알바	-10.9239
까지도	-10.9243
▁학생들에게	-10.9246
▁이스라엘에	-10.9247
▁소비자들	-10.9252
▁유물	-10.9254
연대	-10.9257
ide	-10.9261
▁지원금	-10.9261
▁찾아내	-10.9267
▁피하기	-10.927
▁전범	-10.927
▁꽃	-10.9273
▁학생이	-10.9279
▁대로	-10.9281
▁이어지	-10.9281
▁군과	-10.9286
트릭	-10.9286
▁진행중	-10.9287
54	-10.9289
▁계속할	-10.9289
▁독재	-10.9298
▁호주에서	-10.9303
▁이슬라마바드	-10.9308
체제	-10.9312
▁교도소에서	-10.9314
세포	-10.9314
▁간부	-10.9322
res	-10.9325
▁합의에	-10.933
▁내일	-10.9331
▁취하고	-10.9336
▁로이	-10.9337
사이트	-10.9337
쟁	-10.9338
▁포트	-10.9344
▁거리에서	-10.9346
▁재무	-10.9353
▁간에	-10.9359
▁전체가	-10.936
▁국회에서	-10.9361
명에서	-10.9369
▁가담	-10.9373
자이자	-10.9374
이제	-10.9381
▁기각	-10.9384
▁지속되	-10.939
▁매력	-10.9393
▁반대하고	-10.9398
▁똑같	-10.9398
해서는	-10.94
▁위치해	-10.9401
▁이들에게	-10.9402
▁의제	-10.9409
▁윈프리	-10.9411
▁해안에	-10.9411
▁방송에서	-10.9412
혜	-10.9413
꼬	-10.9414
뷰	-10.9414
▁Seoul	-10.9414
▁맞았다	-10.9414
▁박격포	-10.9414
▁스타벅스	-10.9414
▁없애	-10.9414
▁찾았다	-10.9414
▁토크쇼	-10.9414
▁호나우두	-10.9414
▁후지모리	-10.9414
껏	-10.9414
▁음주운전	-10.9414
▁켄터키	-10.9414
WTO	-10.9414
마라	-10.9414
▁고유가	-10.9414
▁가져올	-10.9415
▁포획	-10.9415
▁돌아올	-10.9415
▁기획	-10.9416
ial	-10.9416
▁자동차업계	-10.9417
▁가끔	-10.9417
▁워렌	-10.9417
▁자발적	-10.9417
▁안드레	-10.9418
▁참배	-10.9418
▁드레스	-10.9419
▁결합	-10.9419
▁독감	-10.9419
▁연구결과	-10.9419
▁설정	-10.942
▁클라크	-10.942
▁처형	-10.9421
▁카라치	-10.9421
▁예선	-10.9421
▁포경선	-10.9421
▁로켓포	-10.9422
▁마찰	-10.9423
ence	-10.9424
▁매입	-10.9424
▁치매	-10.9424
정권	-10.9425
▁밀러	-10.9426
▁개헌안	-10.9427
▁던져	-10.9429
be	-10.943
▁부결	-10.943
▁넣었다	-10.9431
▁재배	-10.9432
▁피랍된	-10.9434
▁약탈	-10.9434
▁사살했다	-10.9434
▁반등	-10.9435
▁Ca	-10.9436
빅	-10.9436
말리키	-10.9437
FBI	-10.9437
▁기증	-10.9438
▁하거나	-10.9439
뉴욕	-10.9439
시즌	-10.944
보고서	-10.944
▁부속	-10.944
▁상사	-10.9441
▁전형적	-10.9444
▁펄	-10.9445
▁서브	-10.9445
▁이득	-10.9447
▁소유주	-10.9447
▁정체	-10.945
▁해방	-10.9452
▁2-1	-10.9453
▁일시적	-10.9455
▁명성	-10.9462
▁강간	-10.9464
몬드	-10.9468
바리	-10.9468
▁초에	-10.9476
▁대우	-10.9477
▁방문은	-10.9482
▁재정적	-10.9483
▁대변	-10.9484
▁재판에서	-10.9491
▁FDA	-10.9492
▁줄리	-10.9492
▁업무를	-10.9494
▁대비해	-10.9497
▁하비	-10.9497
준다	-10.9502
▁죽이	-10.9505
받아	-10.9506
▁기울	-10.9512
ga	-10.9512
▁일단	-10.9515
▁내리는	-10.952
리오	-10.952
▁정부군과	-10.9522
▁개성	-10.9523
율이	-10.9523
▁배상	-10.9528
▁분석했다	-10.9529
43	-10.9529
▁아미	-10.9534
▁표시했다	-10.9537
▁이적	-10.9538
▁주권	-10.9543
▁기원	-10.9547
▁단장	-10.9548
▁선택했다	-10.9549
ke	-10.9551
▁출신인	-10.9554
장비	-10.9562
▁은행들	-10.9568
oo	-10.9571
▁세운	-10.9572
▁춤	-10.9576
▁결심	-10.9583
교수	-10.9583
▁평화상	-10.9583
▁수락	-10.9588
▁국무	-10.9591
▁북부에서	-10.9592
▁다르	-10.9594
감시	-10.9596
▁무샤라프는	-10.9597
▁아시아에서	-10.9603
▁탈레반측	-10.9607
▁크기의	-10.9609
변화	-10.9609
▁못하다	-10.9613
▁벌어지	-10.9614
하드	-10.9614
이었지만	-10.9619
▁내지	-10.9624
▁쪽	-10.9624
푸르	-10.9625
▁보유한	-10.9626
▁호텔에	-10.9628
구조	-10.9638
▁파키스탄군	-10.9639
oll	-10.9641
▁위장	-10.9642
▁입어	-10.9645
▁소유한	-10.9645
56	-10.965
까요	-10.9651
▁맡았	-10.9652
▁간주	-10.9652
대책	-10.9664
▁뉴저지	-10.967
▁사안	-10.9679
냥	-10.968
섭	-10.9681
덤	-10.9681
▁휩쓸	-10.9681
팩	-10.9684
딜	-10.9684
▁Bush	-10.9684
▁러닝메이트	-10.9684
▁맨해튼	-10.9684
▁애완동물	-10.9684
▁유람선	-10.9684
▁활성화	-10.9684
끔찍한	-10.9684
▁하버드	-10.9684
▁섹시	-10.9684
▁라모스	-10.9684
▁기다려	-10.9684
▁남아프리카공화국	-10.9684
▁알제리	-10.9685
▁넬슨	-10.9685
▁브레이크	-10.9685
▁슈퍼볼	-10.9685
어져	-10.9685
▁밝혀냈다	-10.9686
▁라호르	-10.9686
▁머레이	-10.9686
▁아빠	-10.9688
▁변화에	-10.9689
▁외쳤다	-10.969
▁연령	-10.969
▁미셸	-10.9691
▁진료	-10.9691
▁생명체	-10.9691
▁불안정	-10.9693
▁만료	-10.9694
▁대테러	-10.9694
▁승점	-10.9695
▁응원	-10.9697
▁케이시	-10.9698
▁기념식	-10.9698
▁교내	-10.97
▁사이버	-10.9705
▁영화에서	-10.9706
▁유행	-10.9706
▁모래	-10.9708
▁단식	-10.9709
아버지	-10.9709
▁가르	-10.9712
점에서	-10.9712
▁거친	-10.9713
▁연구원	-10.9713
떼	-10.9713
▁사회당	-10.9714
▁수사에	-10.9714
착륙	-10.9715
그것은	-10.9715
잘	-10.9716
▁특사는	-10.9717
▁사라진	-10.9718
음악	-10.9718
같이	-10.972
▁생성	-10.972
▁유럽과	-10.9721
▁실패한	-10.9724
진압	-10.9724
▁연대	-10.9725
▁클린턴과	-10.9726
▁화제	-10.9726
▁받아들이지	-10.9729
▁총리직	-10.9729
▁차지한	-10.9729
3000	-10.973
▁리오	-10.973
년형	-10.9731
▁피신	-10.9733
▁먼지	-10.9734
▁버지니아주	-10.9737
▁소화	-10.9737
▁이어졌다	-10.9739
▁제작자	-10.9739
▁석	-10.9739
▁지지자들에게	-10.9742
▁기분이	-10.9742
▁남쪽으로	-10.9746
체계	-10.9749
▁인도분	-10.9749
▁수사관들은	-10.975
▁발매	-10.975
▁59	-10.9756
▁걸려	-10.9756
▁산소	-10.9758
달라	-10.9759
▁예측했다	-10.976
▁지방에서	-10.9764
▁성분	-10.977
올해	-10.9771
▁69	-10.9773
▁그랜드	-10.9775
▁상자	-10.9777
▁거래됐다	-10.9777
▁템	-10.9778
▁병력이	-10.9781
었	-10.9783
라이브	-10.9785
▁강타한	-10.9787
▁약속한	-10.9789
▁성명서	-10.9791
▁확인하기	-10.9793
▁이민자들	-10.9796
▁일어나지	-10.98
▁메리	-10.9805
자들과	-10.9812
▁이른	-10.9816
▁근처에	-10.9816
▁프랑스에서	-10.9817
▁즐기는	-10.9817
able	-10.9825
▁눈물	-10.9828
▁Ro	-10.983
▁탄도	-10.9831
▁양자	-10.9831
▁본드	-10.9837
▁느끼는	-10.9838
▁최고위	-10.9839
▁폭력사태로	-10.9841
평방	-10.9847
▁민간인들	-10.9856
MS	-10.9858
78	-10.9859
▁아프간에	-10.986
▁war	-10.9869
▁명단에	-10.9869
▁대안	-10.9871
▁전용	-10.9874
▁사무	-10.9874
학생	-10.9876
워드	-10.9876
프라	-10.9886
▁이라크내	-10.9892
▁성공을	-10.9893
da	-10.99
티드	-10.9904
그들이	-10.9905
▁취소했다	-10.9908
▁확산되	-10.9911
▁비난한	-10.9911
▁노대통령은	-10.9914
▁재해	-10.9915
▁소비자들이	-10.9915
▁종이	-10.9922
▁계속하고	-10.9925
▁57	-10.9925
37	-10.9926
레오	-10.9929
▁파키스탄에서	-10.9931
건물	-10.9931
▁바지	-10.9933
▁가즈니	-10.9934
▁철수시키	-10.9944
▁문제점	-10.9944
▁남자들	-10.9946
▁위협에	-10.9949
con	-10.9949
▁언급한	-10.9951
▁치를	-10.9952
▁용납	-10.9955
▁매케인이	-10.9955
▁하트	-10.9956
블리	-10.9959
흑	-10.9959
▁파크	-10.9959
겔	-10.9962
▁듣지	-10.9962
▁디트로이트	-10.9962
▁럼스펠드	-10.9962
▁스탈린	-10.9962
▁억만장자	-10.9962
▁텔레비전	-10.9962
▁피츠버그	-10.9962
▁헬리콥터	-10.9962
닛	-10.9962
▁브루니	-10.9962
▁최고경영자	-10.9962
▁딜러	-10.9962
▁덴버	-10.9962
▁돌아다니	-10.9962
▁코카인	-10.9962
▁낭비	-10.9962
▁티벳	-10.9962
▁고등법원	-10.9962
2007.09	-10.9963
▁텐트	-10.9963
time	-10.9963
▁왜곡	-10.9963
▁친환경	-10.9963
▁복합	-10.9964
▁동굴	-10.9964
▁처방	-10.9964
▁생겨	-10.9964
▁대선주자	-10.9965
▁요르단강	-10.9965
▁장벽	-10.9965
▁다가오	-10.9966
▁신원이	-10.9966
▁절감	-10.9966
▁구호품	-10.9967
▁목요일에	-10.9967
▁위축	-10.9968
▁불황	-10.9969
▁70%	-10.997
▁유혈	-10.997
▁치른	-10.997
▁출국	-10.997
▁도망	-10.9971
▁행동이	-10.9971
▁소총	-10.9971
▁보수당	-10.9973
▁추천	-10.9973
▁사우스	-10.9974
▁휴식	-10.9975
▁반환	-10.9976
▁느낀다	-10.9976
▁유골	-10.9976
▁매출	-10.9978
▁개발한	-10.9982
▁라울	-10.9982
실질적인	-10.9983
▁파편	-10.9985
▁아랍에미리트	-10.9987
▁합의문	-10.9987
▁배포	-10.9988
▁그들에게	-10.9988
▁첫날	-10.999
▁중점	-10.9993
▁밀어	-10.9994
몽	-10.9994
▁비평	-10.9998
아메리칸	-10.9998
▁그곳에서	-10.9998
▁수요일에	-10.9999
유럽	-11
클린턴	-11.0001
▁없다며	-11.0001
잠	-11.0002
▁과제	-11.0006
▁분야에	-11.0008
이라면	-11.0009
▁유명하다	-11.0011
▁아니며	-11.0012
▁명백한	-11.0015
▁구타	-11.0017
건강	-11.0017
▁아라비아	-11.0023
▁재고	-11.0025
ick	-11.0026
▁중단됐다	-11.0027
▁선적	-11.0029
▁심화	-11.0032
여행	-11.0032
▁제프	-11.0032
▁샤리프는	-11.0032
▁구단	-11.0033
통제	-11.0034
▁리비	-11.0035
▁집회에	-11.0042
▁이른다	-11.0044
▁시작될	-11.0045
수단	-11.0047
보드	-11.0048
▁군중들	-11.0054
▁장성	-11.0058
▁41	-11.0058
프리	-11.0059
▁반미	-11.0063
베스	-11.0071
▁조직원	-11.0072
사실	-11.0074
▁취하지	-11.0081
문화	-11.0082
73	-11.0085
▁페리	-11.0086
▁상위	-11.0088
▁언론과	-11.009
▁기본적	-11.0091
▁복장	-11.0092
스트라	-11.0093
▁무엇이	-11.0093
▁조치로	-11.0094
▁방문에	-11.0094
▁전합니다	-11.0097
94	-11.0102
▁입수한	-11.0112
▁원주민	-11.0121
▁편집	-11.0122
▁난민들	-11.0127
▁법적으로	-11.0128
▁통해서	-11.0129
죄로	-11.0137
자들에	-11.0138
▁해왔다	-11.0139
호프	-11.0143
▁투기	-11.0144
티스	-11.0144
라니	-11.0146
▁웨이	-11.0153
▁형태로	-11.0153
기때문에	-11.0155
sh	-11.0157
퍼스	-11.0162
▁참여했다	-11.0168
▁원하지	-11.0171
▁들어와	-11.0177
▁미라	-11.0183
▁피살	-11.0186
군과	-11.019
▁남성과	-11.0195
▁An	-11.0198
▁선박이	-11.0198
▁급락	-11.02
▁봉	-11.0201
▁명백	-11.0202
▁확인되	-11.0204
▁자녀들	-11.0208
레이크	-11.023
▁덧붙	-11.0234
▁피고인	-11.0235
▁청소	-11.0236
▁피어	-11.0243
(2	-11.0247
▁끝났다	-11.0248
▁느껴	-11.0248
▁모았다	-11.0248
▁버냉키	-11.0248
▁스튜디오	-11.0248
▁침묵	-11.0248
캄	-11.0248
▁브래드	-11.0248
▁규칙	-11.0248
▁유수프	-11.0248
▁바하마	-11.0248
▁take	-11.0248
▁부양책	-11.0248
▁휴스턴	-11.0248
▁스콧	-11.0249
▁놀랄	-11.0249
▁안토니오	-11.0249
▁가혹	-11.0251
▁반체제	-11.0252
▁국방위원장	-11.0252
▁집필	-11.0253
▁부활	-11.0253
▁새겨	-11.0254
▁금속	-11.0255
▁90%	-11.0255
▁화석	-11.0257
▁CD	-11.0257
▁장거리	-11.0259
▁시청자들	-11.0259
▁발생했	-11.026
▁보조금	-11.0261
▁네바다주	-11.0262
▁처분	-11.0262
▁추문	-11.0263
▁대령	-11.0263
▁쓰는	-11.0265
▁장소에서	-11.0266
▁한달	-11.0267
▁개설	-11.0267
▁측이	-11.0268
▁선원들	-11.027
▁예선전	-11.0274
▁지나치	-11.0276
▁환수	-11.0279
▁구경	-11.0279
▁입원했다	-11.0281
옥	-11.0285
▁밝히며	-11.0285
되도록	-11.0285
▁아민	-11.0287
리나	-11.0288
▁움직임이	-11.0289
▁태우고	-11.0292
ian	-11.0292
▁어디	-11.0293
▁콰	-11.0294
▁지질	-11.0294
▁연이	-11.0297
재판소	-11.0299
▁움직	-11.03
▁병사들이	-11.03
▁무산	-11.0303
▁투명	-11.0304
▁나체	-11.0306
▁가족들에게	-11.0308
▁해역	-11.031
였고	-11.031
▁전사	-11.0313
▁공무원들	-11.0313
▁증언했다	-11.0316
타스	-11.0318
▁가기	-11.0319
▁당일	-11.032
▁제외하고	-11.0325
터키	-11.0334
▁CDC	-11.0334
▁선출된	-11.0335
아웃	-11.0335
▁생각해	-11.0339
▁대선에	-11.034
▁서한	-11.0342
▁된다면	-11.0345
▁바닥에	-11.0351
▁부리	-11.0362
▁밝히기	-11.0364
▁같	-11.0377
▁착용하	-11.038
우디	-11.0382
▁조씨	-11.0386
▁이송됐다	-11.0392
▁탈북자	-11.0393
▁대리	-11.0396
.6%	-11.0397
비행기	-11.0404
▁의자	-11.0415
▁강화할	-11.0415
▁AI	-11.0416
▁부인하고	-11.0421
▁일으키는	-11.0421
▁확인하고	-11.0422
▁대답했다	-11.0426
▁주말에	-11.0427
▁명령했다	-11.0427
▁중반	-11.0429
▁47	-11.0434
나라	-11.0435
▁모두에게	-11.0435
▁배심원	-11.0437
지오	-11.0439
08	-11.0444
▁유지할	-11.0445
▁돌입	-11.0446
▁축출	-11.0446
발전	-11.0448
▁대회에	-11.045
▁재선	-11.045
▁상원에서	-11.0452
▁롤	-11.0458
▁추락한	-11.0471
▁국가인	-11.0486
예프	-11.0489
▁71	-11.049
▁군중	-11.0491
▁경찰청	-11.0492
▁갖기	-11.0492
▁이외	-11.0494
룩	-11.0496
기금	-11.05
▁고수	-11.05
사람	-11.051
공장	-11.0512
유지	-11.0517
▁있었기	-11.052
67	-11.052
하였으며	-11.052
▁부르는	-11.0521
중이다	-11.0521
▁재활	-11.0523
▁음료	-11.0525
▁재판이	-11.0525
▁mo	-11.0529
▁제작된	-11.0529
▁구제금융	-11.0531
럭	-11.0533
▁종합	-11.0536
▁180	-11.0537
첩	-11.0539
셋	-11.054
즘	-11.0541
쿨	-11.0542
▁military	-11.0542
▁괜찮	-11.0542
▁기준금리	-11.0542
▁끊임없	-11.0542
▁뒷받침	-11.0542
▁마이스페이스	-11.0542
▁마케팅	-11.0542
▁애틀랜타	-11.0542
▁에르도간	-11.0542
▁잡았다	-11.0542
▁풀려났다	-11.0542
▁호날두	-11.0542
맘	-11.0542
▁브리트니	-11.0542
▁1-0	-11.0542
▁좌파	-11.0542
▁기뻐	-11.0542
▁나눠	-11.0542
▁바바라	-11.0543
▁신용카드	-11.0543
▁요즘	-11.0543
▁세인트	-11.0543
▁밝혔으나	-11.0543
▁무소속	-11.0544
▁나아가	-11.0544
▁Day	-11.0544
▁화염	-11.0544
▁조짐	-11.0544
▁보좌관들	-11.0545
되었는데	-11.0545
▁영광	-11.0546
▁코스피	-11.0546
▁돌아온	-11.0546
▁감바	-11.0547
▁도핑	-11.0547
▁소유권	-11.055
▁레이저	-11.0551
▁170	-11.0551
레즈	-11.0552
▁대기업	-11.0552
▁금연	-11.0552
▁동성	-11.0552
▁때문입니다	-11.0553
구역	-11.0553
▁나와즈	-11.0554
▁들어온	-11.0554
▁히트	-11.0555
▁타결	-11.0555
▁배심원단	-11.0557
▁su	-11.0559
▁닭	-11.0561
▁급진	-11.0561
9000	-11.0561
▁배급	-11.0563
▁대폭	-11.0565
위원장은	-11.0566
▁교육부	-11.0568
▁석방된	-11.0569
▁당연	-11.0571
▁경제학자	-11.0571
▁쉬운	-11.0571
▁주주들	-11.0574
▁식수	-11.0575
▁포위	-11.0575
▁리더	-11.0579
물질	-11.0581
▁스카이	-11.0582
▁예정되어	-11.0582
▁헐	-11.0583
▁앞선	-11.0585
36	-11.0586
▁장기간	-11.0587
▁전시회	-11.0588
▁약품	-11.0588
▁복지	-11.059
AU	-11.059
TA	-11.0592
▁저지르	-11.0592
▁8%	-11.0593
▁여유	-11.0593
축구	-11.0596
▁미치지	-11.0596
87	-11.0598
또	-11.0599
▁여아	-11.06
▁연방정부	-11.0601
▁보호하고	-11.0602
▁한다면	-11.0602
▁비극	-11.0603
▁민주당원	-11.0605
▁구간	-11.0606
▁클로	-11.0609
▁참사	-11.0612
▁좋아한다	-11.0618
▁사회에	-11.062
▁시카고에서	-11.0622
▁남기	-11.0623
▁가자지구에서	-11.0624
▁의장이	-11.0628
▁발달	-11.0628
▁엑	-11.063
▁있기를	-11.0633
▁확신했다	-11.0634
▁반도	-11.0637
▁논의했다	-11.0639
▁회견에서	-11.0642
인치	-11.0643
▁77	-11.0643
▁슛	-11.0645
사람들이	-11.0649
머리	-11.0649
가량	-11.0652
▁빌리	-11.0652
▁죽었다	-11.0662
▁일상	-11.0666
▁대원들	-11.0667
▁금년	-11.0667
▁실업	-11.067
▁칼라	-11.067
▁여사와	-11.0674
▁적자	-11.0676
▁독재자	-11.0681
타이거	-11.0684
▁통신사	-11.0687
▁파손됐다	-11.0689
▁도주	-11.069
▁것이기	-11.0697
▁우승자	-11.0697
▁중심에	-11.07
▁제공하고	-11.0703
▁추락했다	-11.0706
▁강화하고	-11.0707
▁적극	-11.0707
조정	-11.071
▁주소	-11.0714
▁개최된	-11.0714
▁전쟁에서	-11.0716
▁장악하	-11.0721
어졌다	-11.0726
▁투자자	-11.0727
이기도	-11.0728
▁내리고	-11.073
▁가족에게	-11.0733
되었지만	-11.0733
▁일어나고	-11.0736
ise	-11.0737
▁전파	-11.0737
민주	-11.0738
▁보도한	-11.0738
▁재판에	-11.074
are	-11.0741
▁생산하는	-11.0746
▁성지	-11.0751
▁바닥	-11.0753
부족	-11.0756
▁폭로	-11.0758
시키며	-11.0758
▁78	-11.076
▁확인된	-11.0769
▁관광지	-11.077
달간	-11.0771
▁사임했다	-11.0771
▁분쟁이	-11.0772
▁다수의	-11.0772
단체가	-11.0772
▁러시아와	-11.0773
세트에서	-11.0773
▁판결에	-11.0774
▁과정에	-11.0775
▁잃었	-11.0775
53	-11.0776
▁76	-11.0778
▁AS	-11.0779
건설	-11.0782
▁중계	-11.0788
▁열렸	-11.0789
▁특이	-11.0789
▁요청할	-11.0793
▁평양에서	-11.0795
▁줄이는	-11.0801
ba	-11.0811
▁베어	-11.0814
▁전임	-11.0816
통신은	-11.0821
Con	-11.0827
▁사람과	-11.0827
▁안된다	-11.0828
▁pre	-11.083
벨트	-11.083
▁프랑스와	-11.0833
천명	-11.0839
▁인정받	-11.084
▁국회에	-11.0841
▁기술자	-11.0841
끔	-11.0842
▁입학	-11.0842
▁득표	-11.0844
▁작용	-11.0844
옐	-11.0845
▁Show	-11.0845
▁원자바오	-11.0845
햇	-11.0845
▁가즈프롬	-11.0845
▁골든글로브	-11.0845
▁떨어질	-11.0845
▁베탕쿠르	-11.0845
▁시애틀	-11.0845
▁썼다	-11.0845
▁애니메이션	-11.0845
▁엘리베이터	-11.0845
▁일으켜	-11.0845
▁테러지원국	-11.0845
렁	-11.0845
▁끌려	-11.0845
▁식민지	-11.0845
▁아칸소	-11.0845
▁캔자스	-11.0845
▁되돌아	-11.0845
▁맥케인	-11.0845
▁혈액	-11.0845
▁양키스	-11.0845
▁북극곰	-11.0845
▁트로피	-11.0845
▁고릴라	-11.0845
▁유적지	-11.0845
▁크레이그	-11.0845
▁멸종위기	-11.0846
▁몸값	-11.0846
▁숨겨	-11.0846
▁출범	-11.0847
▁적응	-11.0848
▁가죽	-11.0848
▁1988	-11.0848
▁운반	-11.0848
▁대략	-11.0848
▁군사작전	-11.0848
▁남녀	-11.0848
▁개념	-11.0849
▁저택	-11.0849
▁패리스	-11.0849
▁논문	-11.0849
▁폭등	-11.0849
▁모험	-11.085
▁참모	-11.0853
▁영감	-11.0854
▁입었으며	-11.0855
있거나	-11.0855
▁거둔	-11.0855
▁탐사선	-11.0857
▁설문	-11.0858
▁면제	-11.0858
▁창조	-11.0859
▁편안	-11.086
▁선장	-11.0861
▁지낸	-11.0862
▁받아들였다	-11.0863
▁평소	-11.0864
▁때마다	-11.0865
▁입력	-11.0867
▁비치	-11.0867
▁그곳에	-11.0867
▁농민	-11.0868
▁분실	-11.0868
▁신병	-11.087
▁타이어	-11.087
▁암호	-11.0871
▁1950	-11.0872
▁연방준비제도이사회	-11.0872
▁주장했지만	-11.0874
▁달러로	-11.0875
▁겪었다	-11.0876
▁관점에서	-11.0877
▁알려주	-11.0877
▁열려	-11.0878
▁파문	-11.0883
▁여단	-11.0885
▁팜	-11.0887
▁가져다	-11.089
▁New	-11.0893
▁하산	-11.0893
▁공조	-11.0896
▁차원에서	-11.0897
▁여야	-11.0898
모어	-11.0898
▁라파	-11.0899
▁폴슨	-11.0901
▁유용	-11.0903
▁자정	-11.0906
셰	-11.0906
[	-11.0907
아프리카	-11.0909
▁권위	-11.0909
알카에다	-11.0911
페이지	-11.0911
스페인	-11.0911
섹스	-11.0912
▁손자	-11.0912
▁요청한	-11.0912
봐야	-11.0913
▁붕괴된	-11.0919
▁줬다	-11.0919
대부분	-11.0919
23	-11.092
59	-11.0923
▁인도주의적	-11.0924
▁tr	-11.0926
▁3%	-11.0926
주택	-11.0928
▁아바	-11.0929
▁원치	-11.0929
▁기록하며	-11.093
▁dis	-11.0934
▁싶어한다	-11.0939
▁맹	-11.0944
▁끄	-11.0951
업체들	-11.0951
해져	-11.0953
시경	-11.0956
▁공학	-11.0962
▁명시	-11.0965
▁현지경찰	-11.0967
▁들어가는	-11.0967
▁데비	-11.0967
▁제공하기	-11.0971
▁요구에	-11.0976
▁에스	-11.0976
▁헤이	-11.0976
▁물었다	-11.0976
▁인도네시아에서	-11.0979
▁이해할	-11.0979
▁사용한다	-11.0986
ah	-11.0995
▁유지하기	-11.1003
▁성사	-11.1007
▁조국	-11.1011
▁필요성을	-11.1012
교류	-11.1027
▁국회의원들	-11.1028
▁작성한	-11.103
▁미끄러	-11.1034
▁비만	-11.1035
▁남아있	-11.1039
▁주차	-11.1046
▁지도자들과	-11.1047
41	-11.1047
야당	-11.1052
▁보였다고	-11.1053
나갈	-11.1061
▁교전이	-11.1066
▁나빠	-11.1068
▁안나	-11.1068
▁나타난	-11.107
학자들	-11.1073
day	-11.1075
▁추구	-11.108
mb	-11.1081
▁지원하기	-11.1082
▁시위자	-11.1085
▁기리	-11.1085
▁방문객들	-11.1093
▁끝나는	-11.1093
더미	-11.1093
ub	-11.11
▁친척	-11.1111
▁벌어졌	-11.1113
▁부문에서	-11.1117
▁목적이	-11.1117
▁이래로	-11.1117
위원장	-11.112
▁연예	-11.1128
여성	-11.1144
po	-11.1146
▁에디	-11.1147
쁜	-11.1153
▁중동평화	-11.1154
흡	-11.1156
왓	-11.1157
눌	-11.1157
멈	-11.1157
▁국회의사당	-11.1158
▁구호물품	-11.1158
▁머리카락	-11.1158
▁베어스턴스	-11.1158
▁비즈니스	-11.1158
▁슬픔	-11.1158
▁에스토니아	-11.1158
▁취득	-11.1158
▁티셔츠	-11.1158
▁펭귄	-11.1158
▁평화협상	-11.1158
▁흰색	-11.1158
▁베이루트	-11.1158
▁have	-11.1158
▁다운로드	-11.1158
▁그린피스	-11.1158
▁니케이	-11.1158
▁추산했다	-11.1158
▁착취	-11.1158
▁오렌지	-11.1158
▁대한민국	-11.1158
WFP	-11.1158
▁원문기사	-11.1158
▁덕분에	-11.1158
2007.07	-11.1158
▁맥도날드	-11.1158
▁소탕작전	-11.1158
▁칭찬	-11.1158
2007.08	-11.1158
▁마사지	-11.1158
▁바꿔	-11.1158
2006.02	-11.1159
▁진흙	-11.1159
▁동유럽	-11.1159
▁오늘밤	-11.116
2007.11	-11.116
2006.05	-11.116
▁troops	-11.116
▁같습니다	-11.116
▁발효	-11.116
▁회부	-11.1161
▁명칭	-11.1161
▁하얀	-11.1162
▁근교	-11.1165
▁금융시장	-11.1165
2006.10	-11.1165
▁아이돌	-11.1167
▁기습	-11.1168
▁받았지만	-11.1168
▁탈레반과	-11.1168
▁볼튼	-11.1169
▁모르겠다	-11.117
▁현행	-11.117
돌프	-11.1171
▁상반기	-11.1174
▁인체	-11.1175
▁마침	-11.1176
▁테마	-11.1178
▁다이애나비	-11.1179
▁죄수	-11.118
▁영원	-11.1181
▁복수	-11.1182
▁보호하는	-11.1182
▁코피	-11.1185
▁조속	-11.1185
▁미셀	-11.1185
▁포도	-11.1187
▁뒤집	-11.1189
▁묘지	-11.1189
▁그레	-11.119
▁제프리	-11.1193
▁느꼈다	-11.1193
▁예보	-11.1193
▁인기가	-11.1194
▁올리고	-11.1196
▁예상보다	-11.1197
▁시판	-11.1198
▁참여하지	-11.12
▁격리	-11.1201
▁전체에	-11.1201
▁죽어	-11.1201
▁호화	-11.1201
▁부유	-11.1202
▁알렌	-11.1203
▁적십자사	-11.1206
▁이룩	-11.1206
▁미술	-11.1209
▁채권	-11.121
▁2008.11	-11.121
▁지도자로	-11.1213
▁참석해	-11.1213
▁기권	-11.1214
▁참여하는	-11.1214
▁확실하지	-11.1214
port	-11.1215
▁시달리고	-11.1215
▁속한	-11.1216
▁경제학자들	-11.1216
▁제방	-11.1217
▁인정한	-11.1218
▁결의안에	-11.1218
▁비유	-11.1221
▁줄여	-11.1223
▁선고받	-11.1225
굴	-11.1226
▁제압	-11.1226
▁과시	-11.1227
▁투표할	-11.1228
▁출연해	-11.123
▁지문	-11.123
털	-11.1231
▁폭격기	-11.1231
▁중령	-11.1232
▁불화	-11.1234
▁전염	-11.1236
▁자크	-11.124
▁거주지	-11.124
▁괴한	-11.1242
▁2,000	-11.1242
▁라인	-11.1248
▁주최측은	-11.1248
▁실어	-11.1254
▁이어질	-11.1256
줬	-11.1259
ext	-11.1261
▁청년	-11.1262
배우	-11.1264
▁실력	-11.1267
▁제약	-11.1268
▁머리에	-11.1271
▁15%	-11.1272
▁관리자	-11.1273
로서는	-11.1275
▁OPEC	-11.1275
ile	-11.1276
니까	-11.1277
▁불평	-11.1282
▁정치적으로	-11.1282
▁오프라	-11.1283
▁드립니다	-11.1283
▁나간	-11.1284
무라	-11.1286
NU	-11.129
적이며	-11.1293
▁납	-11.1294
▁자라	-11.1295
▁아크	-11.1296
티아	-11.1299
▁사제	-11.1302
▁행사에서	-11.1311
▁당국과	-11.1311
▁정신과	-11.1313
▁김씨	-11.1317
리언	-11.132
▁심사	-11.1324
▁건수	-11.133
62	-11.1333
리틀	-11.134
▁회원들	-11.1342
하르	-11.1344
스틴	-11.1344
놓고	-11.135
략	-11.135
구간	-11.1357
▁선언한	-11.136
베라	-11.1361
였지만	-11.1365
▁개최되	-11.1369
버릴	-11.1369
살인	-11.1374
▁어머니와	-11.1376
▁클리	-11.1383
▁킨	-11.1384
▁유니	-11.1386
▁장기적	-11.1388
▁검토하	-11.1394
▁장악	-11.1407
▁지구에서	-11.1413
▁중단하고	-11.1418
▁아기들	-11.1419
코트	-11.1429
▁감시단	-11.1437
▁몽	-11.1439
▁미치	-11.1448
▁전설	-11.1448
▁패한	-11.1449
있으며	-11.145
▁미시간	-11.1452
▁참석하기	-11.1474
융	-11.1475
슐	-11.1476
▁풀려	-11.1477
부분	-11.1477
주기	-11.1478
▁마을에	-11.1479
스트리트	-11.148
▁로스앤젤레스	-11.148
▁모가디슈	-11.148
▁재확인	-11.148
▁AFP	-11.148
▁Secretary	-11.148
▁맞붙	-11.148
▁뮌헨	-11.148
▁불렀다	-11.148
▁상관없이	-11.148
▁오케스트라	-11.148
▁유니세프	-11.148
▁이르기까지	-11.148
▁이르렀다	-11.148
▁정해지지	-11.148
▁칸다하르	-11.148
▁트라볼타	-11.148
▁항생제	-11.148
▁황우석	-11.148
잎	-11.148
▁되풀이	-11.148
▁매머드	-11.148
▁브리티시	-11.148
▁집무실	-11.148
▁대주교	-11.148
▁유조선	-11.148
마누엘	-11.148
▁중산층	-11.148
▁국가주석	-11.148
▁세비야	-11.148
▁흐름	-11.148
▁침범	-11.148
▁브루스	-11.148
사령부	-11.148
▁효력	-11.1481
▁잔혹	-11.1481
▁히드로	-11.1481
▁무너져	-11.1481
(25)	-11.1481
▁크로커	-11.1481
▁벌어들	-11.1481
▁면접	-11.1481
▁캐롤	-11.1482
▁공군기지	-11.1482
▁가속화	-11.1482
▁아마존	-11.1483
▁부통령이	-11.1483
▁어두운	-11.1484
▁1981	-11.1484
▁가한	-11.1486
▁다행히	-11.1486
▁밤새	-11.1487
▁풍선	-11.1487
▁피닉스호	-11.1487
▁2011	-11.149
▁라이프	-11.1491
▁다녀	-11.1491
▁1/4	-11.1491
▁감량	-11.1493
▁사용하기	-11.1494
▁가축	-11.1494
▁계열사	-11.1495
▁요새	-11.1497
▁난동	-11.1497
▁없었던	-11.1498
▁가결	-11.1498
▁제패	-11.15
▁놓여	-11.1501
공항	-11.1501
▁인계	-11.1502
▁정치범	-11.1503
▁줄이고	-11.1504
▁레이더	-11.1505
▁지니	-11.1507
▁폐기물	-11.1507
▁우리베	-11.1508
▁소란	-11.1508
▁정상회의	-11.151
▁정교	-11.151
방안	-11.1511
▁프린스	-11.1512
시켜야	-11.1513
▁부상자들	-11.1517
렌스	-11.1517
▁크로아티아	-11.1518
▁천문학자들	-11.1518
▁입구	-11.1518
▁페르	-11.1526
▁감원	-11.1527
part	-11.1528
▁열정	-11.1531
▁전송	-11.1531
▁염려	-11.1533
▁비전	-11.1533
▁나란	-11.1535
▁방치	-11.1536
▁서약	-11.154
▁노동부	-11.1545
▁채우	-11.1548
▁버전	-11.1548
▁걸었다	-11.1549
▁의원들에게	-11.1549
▁정오	-11.155
▁연방수사국	-11.1551
▁대조	-11.1554
▁확보했다	-11.1555
▁성공회	-11.1559
▁초래	-11.1559
▁BDA	-11.1559
▁신도	-11.156
▁시계	-11.156
톱	-11.1562
▁1200	-11.1564
▁개인적으로	-11.1564
FARC	-11.1566
▁81	-11.1566
▁경찰에따르면	-11.1567
검찰	-11.1568
개혁	-11.1571
▁공부	-11.1572
▁국정	-11.1572
▁넣어	-11.1573
▁제공해	-11.1575
92	-11.1578
▁말하면서	-11.158
▁닐	-11.158
▁한쪽	-11.1581
주민들	-11.1585
▁본국	-11.1586
▁팔려	-11.1594
▁덕	-11.1594
▁서명했다	-11.1596
군데	-11.1597
▁선정됐다	-11.1599
▁조사하기	-11.16
▁경기도	-11.1602
▁기소했다	-11.1608
09	-11.161
▁시위로	-11.1612
사람들은	-11.1616
▁결승전	-11.1617
▁위협했다	-11.1618
▁프레드	-11.162
▁출전한	-11.1623
투어	-11.1624
▁63	-11.1624
전문	-11.1629
그린	-11.1633
▁허위	-11.1634
▁바다로	-11.1635
▁do	-11.1635
ust	-11.1637
▁총격으로	-11.1638
▁동맹국들	-11.1638
▁미소	-11.164
▁수만명	-11.1643
▁모스크바에서	-11.1645
▁증진	-11.1645
▁가정에	-11.1647
▁제트	-11.1648
▁세기	-11.1649
▁캔	-11.1652
▁증인	-11.1658
▁동해	-11.1658
▁당국자	-11.1661
▁주교	-11.1662
▁정보국	-11.1665
▁해외에서	-11.1666
=	-11.1668
▁가서	-11.1671
33	-11.1674
전략	-11.1674
▁사진들	-11.1676
▁차관보	-11.1679
▁관계자들과	-11.1679
86	-11.1681
▁아내와	-11.1682
▁탈출했다	-11.1684
▁효율적	-11.1684
▁단계에	-11.1684
▁시점에서	-11.1689
▁고려해	-11.1689
파크	-11.1692
리어	-11.1696
low	-11.1698
▁For	-11.1698
▁공격수	-11.1701
▁금지하고	-11.1703
학년	-11.1704
NA	-11.1704
▁학생들과	-11.1704
▁ex	-11.1705
▁기자들이	-11.1707
▁지지도	-11.1711
시까지	-11.1715
▁지수가	-11.1727
ore	-11.1734
▁우드	-11.1734
▁주가가	-11.1744
▁도와	-11.1749
▁보내기	-11.175
▁참가했다	-11.1751
여부	-11.1754
▁주인이	-11.1757
▁자바	-11.1759
▁지지율이	-11.1761
▁힐튼이	-11.1764
코스	-11.1765
▁판결했다	-11.1772
회의에서	-11.1777
▁라이브	-11.1779
▁불가피	-11.1783
▁등급	-11.1783
ever	-11.1784
▁혼란에	-11.1794
▁Mo	-11.1799
▁크리스티	-11.181
▁광우병	-11.1813
▁글래스고	-11.1813
▁상파울루	-11.1813
▁야스쿠니	-11.1813
▁왕복선	-11.1813
▁우주정거장	-11.1813
▁잃지	-11.1813
▁좋게	-11.1813
▁카자흐스탄	-11.1813
▁커뮤니티	-11.1813
킴	-11.1813
▁Foreign	-11.1813
▁당나귀	-11.1813
▁몸무게	-11.1813
▁수퍼대의원	-11.1813
▁스튜어트	-11.1813
▁인종차별	-11.1813
▁번지	-11.1813
▁부작용	-11.1813
▁예언자	-11.1813
▁마라도나	-11.1814
▁침투	-11.1814
인디아나	-11.1814
▁교과서	-11.1814
▁닉슨	-11.1814
▁모로코	-11.1814
▁동북아	-11.1814
▁쇼핑몰	-11.1814
▁회색	-11.1814
▁State	-11.1814
▁침수	-11.1814
▁수비수	-11.1814
▁힌두교	-11.1815
▁오픈에서	-11.1815
▁있었는지	-11.1815
▁회피	-11.1815
▁양육권	-11.1815
▁연휴	-11.1815
▁쿠르드족	-11.1816
▁높아졌다	-11.1816
▁농담	-11.1816
▁풍경	-11.1817
▁호킹	-11.1817
▁필리스	-11.1817
▁유효	-11.1817
▁활기	-11.1818
ISS	-11.1818
▁연극	-11.1818
▁임박	-11.1818
▁워너	-11.1818
스럽다	-11.1818
줘야	-11.1819
74	-11.182
▁하더라도	-11.182
▁버튼	-11.1821
▁무너진	-11.1821
▁재벌	-11.1821
▁할아버지	-11.1822
▁헌신	-11.1822
▁종양	-11.1824
▁토양	-11.1824
▁중상	-11.1824
▁추출	-11.1824
▁소식통들	-11.1826
▁지닌	-11.1826
▁극단주의자들	-11.1829
▁기름	-11.1829
▁조종	-11.1829
▁전대통령	-11.183
▁지속될	-11.183
▁차림	-11.183
▁후퇴	-11.1831
▁구단주	-11.1832
▁준결승전	-11.1832
▁부른	-11.1833
▁변호사들	-11.1834
해졌	-11.1835
▁이례적	-11.1835
▁책정	-11.1835
▁유예	-11.1835
▁일축했다	-11.1835
▁면적	-11.1837
국가들	-11.184
▁교량	-11.1841
▁도와주	-11.1847
▁문신	-11.1848
▁강연	-11.1848
▁포기했다	-11.1848
▁구형	-11.1849
▁감면	-11.185
▁국무장관이	-11.185
▁가자지구에	-11.1851
▁확실하다	-11.1851
▁재발	-11.1851
내려	-11.1855
▁협상단	-11.1859
▁동전	-11.187
▁900	-11.1873
▁지키기	-11.1875
ern	-11.1875
▁수십억	-11.1876
만여	-11.1878
▁카지노	-11.1878
▁특별히	-11.1878
▁소방관	-11.1879
▁통일	-11.1881
line	-11.1884
시민	-11.1885
▁밝혔었	-11.1885
▁설치된	-11.1885
느냐	-11.1887
▁누르고	-11.1897
▁집어	-11.1904
▁가려	-11.1905
▁녹화	-11.1906
▁말하지	-11.1907
▁크고	-11.1907
빛	-11.1908
핀	-11.1908
죽	-11.1909
UEFA	-11.1909
CIA	-11.1911
▁드는	-11.1913
▁보낸다	-11.1913
언론	-11.192
NS	-11.1921
▁꺼	-11.1922
▁수용할	-11.1924
▁취임한	-11.1925
▁파손되	-11.1925
▁돌리	-11.1932
데르	-11.1936
▁2009.01	-11.1939
잡지	-11.1939
▁해명	-11.1942
▁기적	-11.1944
▁Be	-11.1944
▁벌어지고	-11.1944
▁추진하고	-11.1944
▁장려	-11.1945
연구원	-11.1946
역대	-11.195
▁시작되는	-11.1957
▁향했다	-11.1959
노프	-11.196
▁파일	-11.1962
▁시작되었다	-11.1962
지도자	-11.1962
▁여자아이	-11.1965
▁군부대	-11.1966
▁엠	-11.1966
▁발리	-11.1968
시키는데	-11.1968
▁물리치	-11.1973
▁이베이	-11.1977
▁연기했다	-11.198
▁포함된다	-11.1981
그러	-11.1981
▁무장대원들	-11.1989
▁군복	-11.1995
▁학위	-11.1997
▁표현했다	-11.1998
▁세관	-11.1998
해진다	-11.1999
▁구상	-11.1999
▁독자	-11.2
일째	-11.2002
▁반지	-11.2003
▁확인해	-11.2006
81	-11.2007
▁호위	-11.2011
▁과장	-11.2014
전문가	-11.2021
▁경찰서에	-11.2023
▁문자	-11.2024
▁북부지역	-11.2028
있던	-11.203
▁시상식에서	-11.2053
▁비교해	-11.2055
▁아이들에게	-11.2056
ese	-11.2061
▁아사	-11.2062
▁취소됐다	-11.2068
▁인명	-11.207
▁측면	-11.2072
르트	-11.2084
▁사이트에	-11.2084
▁구하기	-11.2098
▁가할	-11.21
▁산악	-11.2109
Al	-11.2116
▁의혹에	-11.2117
▁선거전	-11.212
▁후송	-11.2122
▁보호할	-11.2124
▁74	-11.2126
▁들었	-11.2128
빠	-11.2133
▁펜실베니아	-11.2133
▁내장	-11.2134
▁지냈	-11.2136
▁감옥에	-11.2138
▁청소년들	-11.2142
▁승자	-11.2144
▁루이지애나	-11.2146
US	-11.2146
▁플래	-11.2148
▁매사추세츠	-11.2148
▁시위대와	-11.215
줘	-11.2153
▁가난	-11.2154
샬	-11.2154
▁파악하	-11.2155
멍	-11.2156
삭	-11.2157
▁모니터	-11.2157
덩	-11.2158
텍	-11.2158
랫	-11.2158
&#8226;	-11.2158
▁Party	-11.2158
▁났다	-11.2158
▁뉴캐슬	-11.2158
▁도널드	-11.2158
▁동계올림픽	-11.2158
▁매코맥	-11.2158
▁맥코맥	-11.2158
▁미드필더	-11.2158
▁세계보건기구	-11.2158
▁악영향	-11.2158
▁알았다	-11.2158
▁암스트롱	-11.2158
▁종신형	-11.2158
▁촛불	-11.2158
▁친선경기	-11.2158
▁포괄적	-11.2158
넥	-11.2158
엽	-11.2158
▁protest	-11.2158
▁빠뜨	-11.2158
▁아스널	-11.2158
PML	-11.2158
▁제니퍼	-11.2158
▁총기난사	-11.2158
▁바쿠바	-11.2158
▁흥행	-11.2158
▁안락사	-11.2158
▁3-0	-11.2158
▁election	-11.2158
▁린제이	-11.2158
▁크라우	-11.2158
▁여파로	-11.2158
▁치솟	-11.2158
▁중서부	-11.2159
▁속옷	-11.2159
▁취약	-11.2159
▁퇴장	-11.2159
2006.06	-11.2159
▁기후변화	-11.2159
▁수하물	-11.2159
▁계곡	-11.2159
▁둘째	-11.2159
2008.06	-11.216
▁여배우	-11.216
▁Kim	-11.216
▁환경보호	-11.2161
▁대피령	-11.2161
ncy	-11.2161
▁뒤따	-11.2162
▁허블	-11.2162
▁받았으나	-11.2163
▁면역	-11.2163
2006.12	-11.2163
▁몰래	-11.2163
▁정보기관	-11.2164
▁복권	-11.2164
▁연방법원	-11.2164
▁만찬	-11.2164
▁품질	-11.2164
▁불안감	-11.2165
▁가르치	-11.2165
▁성행위	-11.2166
▁맹세	-11.2166
▁해킹	-11.2166
▁국가안보	-11.2166
▁아끼	-11.2166
▁아닐	-11.2167
▁존드로	-11.2167
▁피셔	-11.2167
▁윤리	-11.2167
▁외교관계	-11.2169
▁배제하지	-11.2171
▁격려	-11.2171
▁승객들이	-11.2171
▁공백	-11.2172
▁식물	-11.2174
▁모욕	-11.2175
▁약혼	-11.2175
▁과실	-11.2176
▁교토	-11.2176
사단	-11.2177
▁산악지역	-11.2179
▁코너	-11.218
기위해	-11.2184
▁생존자들	-11.2184
▁돌보	-11.2192
▁후보들은	-11.2195
▁불행	-11.2196
▁버진	-11.2197
42	-11.2198
▁대학살	-11.22
▁성경	-11.2201
▁결장	-11.2201
▁둔화	-11.2205
투데이	-11.2205
▁일반적인	-11.2205
▁붐	-11.2207
▁산타클로스	-11.2207
▁요트	-11.2212
▁혼다	-11.2212
▁아카데미상	-11.2213
▁생겼다	-11.2213
사이드	-11.2214
▁장악한	-11.2216
자회담에	-11.2216
▁아이티	-11.2221
▁건물들	-11.2226
▁운하	-11.2232
▁말했지만	-11.2233
DR	-11.2234
▁leader	-11.2234
▁아이들과	-11.2237
▁여기서	-11.2238
▁홀리	-11.2239
▁Center	-11.2243
▁부장관	-11.2244
밤	-11.225
▁사정	-11.2254
▁포기하지	-11.2259
▁빗	-11.2261
▁Sa	-11.2263
▁숨기	-11.2264
▁기반으로	-11.2266
FRB	-11.2267
딸	-11.2267
son	-11.2268
책임자	-11.227
▁리서치	-11.227
▁부진	-11.2272
▁총선에	-11.2273
이었고	-11.2274
▁단서	-11.2274
카트	-11.2275
▁현안	-11.2276
등급	-11.2278
▁만나기	-11.2278
▁캐리	-11.2281
폭력	-11.2281
▁짜	-11.2281
▁25%	-11.2283
재판	-11.2285
비행	-11.2287
▁중단시키	-11.2291
imp	-11.2293
▁효율	-11.2294
▁연예인	-11.2296
▁끈	-11.2298
▁칼로	-11.2299
모두	-11.2301
▁강진	-11.2305
▁저널	-11.2306
▁관료	-11.2313
▁comm	-11.2321
▁있었을	-11.2322
▁당국자는	-11.2324
▁환영했다	-11.2325
00	-11.2327
▁시작해	-11.233
▁350	-11.2333
▁피의자	-11.2335
직원	-11.2335
새로	-11.2347
▁반대했다	-11.2351
▁동부지역	-11.2355
병력	-11.2355
▁어린이들이	-11.2355
▁유입	-11.2357
밀리에	-11.2358
En	-11.2358
▁지연되	-11.2358
▁광부들	-11.2361
AT	-11.238
▁듯한	-11.2382
역사	-11.2386
프린	-11.2387
▁손님	-11.2389
방위	-11.239
▁공세	-11.2393
버렸	-11.2395
OS	-11.2399
▁유세에서	-11.2404
the	-11.2416
▁새해	-11.2427
헤드	-11.2429
ney	-11.2435
▁공산	-11.2438
▁추정되	-11.244
▁주지사와	-11.2444
▁들리	-11.2445
▁장소로	-11.2447
▁것들	-11.2449
▁얼음이	-11.2449
리프	-11.245
▁일으켰	-11.2451
▁남편과	-11.2456
▁호흡	-11.2475
▁움직임에	-11.2482
겠	-11.2482
▁국정원	-11.2484
▁불확실	-11.249
▁경영자	-11.2491
▁위스콘신	-11.2491
▁조사단	-11.2492
▁부근에	-11.2494
▁제공한다	-11.25
▁근무하	-11.2501
▁2005.1	-11.2501
▁강사	-11.2506
픈	-11.2508
▁진행됐다	-11.2509
뒀	-11.2512
얄	-11.2514
흙	-11.2514
▶	-11.2515
7,000	-11.2515
▁House	-11.2515
▁같았다	-11.2515
▁모하마드	-11.2515
▁미네소타	-11.2515
▁사형집행	-11.2515
▁생중계	-11.2515
▁슈워제네거	-11.2515
▁승용차	-11.2515
▁않았을	-11.2515
▁오키나와	-11.2515
▁재정경제부	-11.2515
▁터미널	-11.2515
▁펼칠	-11.2515
▁피추시킨	-11.2515
팍	-11.2515
헴	-11.2515
•	-11.2515
▁냄새	-11.2515
▁유럽축구연맹	-11.2515
▁침팬지	-11.2515
▁클루니	-11.2515
▁호르몬	-11.2515
▁깃발	-11.2515
▁뉴욕타임스	-11.2515
▁북동쪽	-11.2515
▁갤런당	-11.2515
▁페이스북	-11.2515
NEW	-11.2515
▁영부인	-11.2516
▁지중해	-11.2516
▁퍼트레이어스	-11.2516
▁염두	-11.2516
▁냉전	-11.2516
▁북서쪽	-11.2516
(32)	-11.2516
▁앗아	-11.2516
back	-11.2516
▁미망인	-11.2516
▁방사능	-11.2516
▁흐르	-11.2516
▁무하메드	-11.2516
▁노왁	-11.2516
▁타이완	-11.2517
▁패널	-11.2517
2006.07	-11.2518
▁say	-11.2518
▁공략	-11.2518
▁면밀	-11.2518
▁메이저	-11.2518
▁알자와히리	-11.2518
▁나쁘	-11.2518
▁녹색	-11.2519
▁조셉	-11.252
▁밀림	-11.252
▁이루어	-11.252
▁완공	-11.252
▁페리노	-11.252
▁요격	-11.2521
2007.10	-11.2521
▁준장은	-11.2521
▁라틴	-11.2521
▁왔습니다	-11.2521
▁교황청	-11.2522
▁항복	-11.2522
▁건립	-11.2522
▁주치의	-11.2523
▁미하	-11.2523
단지	-11.2525
▁어디서	-11.2525
▁787	-11.2525
▁행방	-11.2526
▁적대적	-11.2526
▁제라드	-11.2526
▁변함	-11.2527
▁토론토	-11.2527
▁세균	-11.2527
▁크리스티나	-11.2529
브리지	-11.253
▁베스트	-11.253
▁총알	-11.253
▁타입	-11.253
놨다	-11.253
▁발목	-11.253
▁중단하라	-11.2534
▁병역	-11.2535
자회담에서	-11.2535
비오	-11.2536
▁비준	-11.2537
▁우연	-11.2538
ner	-11.2539
▁임명된	-11.2539
▁사법부	-11.254
▁탄약	-11.2541
▁후보에게	-11.2541
▁대피소	-11.2544
▁정통	-11.2544
▁보상금	-11.2544
▁통역	-11.2546
▁지속된	-11.2548
fire	-11.2552
▁유포	-11.2555
07	-11.256
▁순찰대	-11.2561
▁제트기	-11.2562
▁그럼	-11.2565
▁동영상에	-11.2566
▁누드	-11.2566
▁신고했다	-11.257
▁off	-11.2573
▁페레	-11.2573
▁자리잡고	-11.2574
▁빵	-11.2576
▁갖는다	-11.2577
▁않자	-11.2579
▁무시하고	-11.2581
▁무장괴한	-11.2584
▁하나이다	-11.2585
학회	-11.2591
▁그라운드	-11.2591
▁확인하는	-11.2592
▁팬들에게	-11.2594
▁110	-11.2595
▁임원	-11.2596
▁기내	-11.2596
▁그쳤다	-11.2597
▁고마	-11.26
▁군용	-11.2601
▁시작되	-11.2601
▁발부	-11.2602
▁자선	-11.2603
▁전례	-11.2606
▁로라	-11.261
▁상승으로	-11.2614
ease	-11.2615
워진	-11.2616
▁많지	-11.2617
▁달아	-11.2619
▁사회주의	-11.2619
▁신비	-11.2623
▁카페인	-11.2627
짐	-11.2629
▁기자들과	-11.2635
NATO	-11.2637
▁장관들	-11.2637
쥐	-11.2638
▁광대	-11.2639
▁67	-11.2639
미얀마	-11.2639
요원들	-11.2639
대통령은	-11.2641
▁집안	-11.2641
민족	-11.2643
▁어려워	-11.2646
▁To	-11.2647
ling	-11.2651
▁든다	-11.2657
아시아	-11.2657
아이들	-11.2659
왔지만	-11.266
▁IT	-11.2664
증권	-11.2666
ber	-11.2669
ator	-11.2672
▁미친	-11.2677
ther	-11.2683
▁지표	-11.2684
▁반대한다	-11.2685
▁동일	-11.2685
▁피해지역	-11.2687
▁고고학자들	-11.2689
문서	-11.2699
red	-11.27
▁불안한	-11.2702
▁다음과	-11.2705
▁묘	-11.2706
▁지역이다	-11.2707
득	-11.2712
네트	-11.2718
▁go	-11.2721
▁수행한	-11.2721
32	-11.2722
라트	-11.2725
▁금지하는	-11.2728
34	-11.2733
▁반군과	-11.2736
up	-11.2744
AS	-11.2745
제작	-11.2748
▁관중	-11.275
▁목격한	-11.2752
▁제안한	-11.2758
▁국가들과	-11.2765
처리	-11.2765
그녀는	-11.2766
▁공원에서	-11.2767
▁가하고	-11.2774
▁다운	-11.2777
▁제조사	-11.2778
▁예상되는	-11.2778
▁전설적	-11.279
▁방한	-11.2792
만여명	-11.2801
▁걸려있	-11.281
▁관광객들은	-11.2814
▁KT	-11.2814
▁소유자	-11.2829
▁물리	-11.2838
▁박탈	-11.2839
▁부탁	-11.284
▁적합	-11.2844
천억	-11.285
▁확인한	-11.2853
▁재미	-11.2867
▁줄기	-11.2872
▁피닉스	-11.2878
▁시도한	-11.2882
▁갑작스	-11.2883
head	-11.2884
▁건물에서	-11.2884
▁광장에	-11.2885
▁2-0	-11.2886
▁벨몬트	-11.2886
긋	-11.2886
International	-11.2886
▁200806.0	-11.2886
▁그루지아	-11.2886
▁그루지야	-11.2886
▁남았다	-11.2886
▁넘어섰다	-11.2886
▁놀랐다	-11.2886
▁마흐무드	-11.2886
▁만장일치	-11.2886
▁메사추세츠	-11.2886
▁박테리아	-11.2886
▁보았다	-11.2886
▁블룸버그	-11.2886
▁스피처	-11.2886
▁없기	-11.2886
▁이스탄불	-11.2886
▁캠벨	-11.2886
▁케르비엘	-11.2886
▁클리블랜드	-11.2886
▁탈라바니	-11.2886
▁프로듀서	-11.2886
믹	-11.2886
셈	-11.2886
▁오징어	-11.2886
▁캥거루	-11.2886
띠	-11.2886
▁김계관	-11.2886
▁겁니다	-11.2886
▁앙겔	-11.2886
▁피아노	-11.2886
▁실업수당	-11.2886
▁비영리	-11.2886
▁퇴역	-11.2886
▁셰이크	-11.2886
▁셔츠	-11.2886
▁닥터	-11.2886
▁자서전	-11.2886
▁다뤄	-11.2886
▁뉴멕시코	-11.2886
▁월드시리즈	-11.2886
▁습관	-11.2886
▁하리리	-11.2886
▁흡수	-11.2886
▁김선일	-11.2886
2007.05	-11.2887
▁빨간색	-11.2887
▁구조조정	-11.2887
▁무엇인지	-11.2888
▁전염병	-11.2888
▁압승	-11.2888
▁디스커버리호	-11.2888
▁심사위원	-11.2888
▁후계자	-11.2888
▁USA	-11.2888
▁불쾌	-11.2888
▁두뇌	-11.2889
▁간섭	-11.2889
▁다짐	-11.289
▁평범	-11.289
▁평결	-11.289
▁국영방송	-11.289
▁모르지만	-11.2891
▁영입	-11.2891
▁꽤	-11.2891
▁위치하	-11.2891
▁격추	-11.2891
▁결백	-11.2892
▁사마라	-11.2892
▁선데이	-11.2892
▁악재	-11.2892
▁올랐으며	-11.2893
▁데니스	-11.2893
▁벌금형	-11.2894
조지	-11.2894
▁감추	-11.2895
▁LG	-11.2895
호르	-11.2895
▁안겨	-11.2897
▁위에서	-11.2898
▁담겨있다	-11.2899
▁장관급	-11.29
▁분출	-11.2901
▁참전	-11.2902
▁국토	-11.2902
▁곡물	-11.2902
▁주어진	-11.2902
▁번역	-11.2903
▁종파	-11.2903
▁육상	-11.2903
▁생각합니다	-11.2904
▁독점	-11.2905
▁외출	-11.2905
▁면에서	-11.2907
▁악화될	-11.2908
▁86	-11.291
▁것이냐	-11.291
▁십대	-11.2911
▁국왕이	-11.2911
▁공통	-11.2911
▁고속	-11.2913
▁지침	-11.2914
▁걸프	-11.2915
▁편집자	-11.2916
▁서버	-11.2916
회장	-11.2916
▁소감	-11.2918
▁초래할	-11.292
▁불가피하다	-11.292
▁기초	-11.2921
▁공방	-11.2922
▁남미	-11.2923
천억원	-11.2923
▁아버지와	-11.2923
▁벽에	-11.2923
▁이용하여	-11.2923
▁부인과	-11.2925
▁공개되지	-11.2926
▁안건	-11.2927
▁안심	-11.2928
▁잠재	-11.2932
▁사무실에서	-11.2935
▁과도한	-11.2936
▁주당	-11.2937
▁개조	-11.294
▁인적	-11.2942
하려면	-11.2947
▁양상	-11.2947
▁장착된	-11.2952
▁비방	-11.2952
▁리타	-11.2953
▁상정	-11.2953
▁조카	-11.2954
▁법정에	-11.2954
▁파견된	-11.296
법에따라	-11.2972
▁암살된	-11.2974
부문	-11.2977
▁발생했던	-11.2978
▁납치됐다	-11.2978
▁콩	-11.2985
▁지목했다	-11.2986
일만에	-11.2988
▁오해	-11.299
▁상태였다	-11.2992
▁들어있는	-11.2993
▁안되	-11.2994
▁놓았다	-11.2997
▁도쿄에서	-11.2999
총리는	-11.3001
▁상아	-11.3002
▁샘	-11.3006
▁유아	-11.3008
경기장	-11.301
▁환영한다	-11.3014
▁폐쇄했다	-11.3016
어지고	-11.3019
묘	-11.3019
헬	-11.302
▁사원에서	-11.3021
탐	-11.3022
떨어진	-11.3024
▁보여주기	-11.303
처음	-11.3031
▁경제학	-11.3032
▁칩	-11.3036
▁고려할	-11.3037
▁측에	-11.304
장애	-11.304
▁교회에서	-11.3041
대사관	-11.3044
▁이겨	-11.3044
▁관해서	-11.3054
▁다음으로	-11.3055
La	-11.3057
ame	-11.3057
▁모르고	-11.3058
▁맡아	-11.3058
▁여진이	-11.306
▁대장	-11.3062
▁것이지만	-11.3063
▁분리주의	-11.3079
▁내게	-11.3085
▁유지하는	-11.3092
▁이사는	-11.3093
▁이탈	-11.3099
실장	-11.3105
빌리	-11.311
▁개최지	-11.3123
▁예비선거	-11.3124
air	-11.3126
▁국민에게	-11.3128
▁웹사이트에서	-11.3129
▁전략적	-11.3137
▁떨어지는	-11.3138
과정에서	-11.314
▁그때	-11.314
▁목소리로	-11.3145
▁일상적	-11.3158
ting	-11.3162
▁핀	-11.3162
▁실직	-11.3166
▁호전	-11.3167
▁라마	-11.3172
act	-11.3179
▁단기	-11.3184
▁[	-11.3192
▁공개할	-11.3193
버거	-11.3194
용의자	-11.3194
▁진행할	-11.3194
졌지만	-11.3204
실적	-11.3208
ous	-11.3216
▁시리아와	-11.3223
▁녹아	-11.3224
▁치명적	-11.3226
▁펼쳤	-11.3234
리노	-11.3236
▁당장	-11.324
글리	-11.3245
▁85	-11.3246
총리	-11.3249
▁시도했다	-11.3251
순위	-11.3255
반군	-11.3261
둑	-11.3268
렬	-11.3268
쇠	-11.3269
4,000	-11.327
▁YORK	-11.327
▁first	-11.327
▁과테말라	-11.327
▁구스마오	-11.327
▁높였다	-11.327
▁늘어났다	-11.327
▁댈러스	-11.327
▁알렉산드	-11.327
▁애틀란타	-11.327
▁에탄올	-11.327
▁여동생	-11.327
▁인플루엔자	-11.327
▁자메이카	-11.327
▁조선중앙통신	-11.327
겹	-11.327
▁Court	-11.327
▁agree	-11.327
▁돌아갔다	-11.327
▁따돌리	-11.327
▁세실리아	-11.327
▁수하르토	-11.327
▁열렬한	-11.327
▁정동영	-11.327
▁토마토	-11.327
▁나타낸	-11.327
▁뉴욕증시	-11.327
▁애쓰고	-11.327
▁좌익	-11.327
무장혁명군	-11.327
▁비공개	-11.327
▁검찰총장	-11.327
▁냉동	-11.327
▁하반기	-11.327
▁검출	-11.3271
▁이벤트	-11.3271
▁러셀	-11.3271
(23)	-11.3271
▁터뜨	-11.3271
▁결렬	-11.3271
▁ETA	-11.3271
▁머무	-11.3272
▁열쇠	-11.3272
▁과잉	-11.3272
▁코미디언	-11.3272
▁혼합	-11.3272
▁호주오픈	-11.3273
2006.09	-11.3273
▁블록	-11.3273
▁태양열	-11.3273
▁레논	-11.3273
▁연합뉴스	-11.3273
▁펠리	-11.3274
▁노리에가	-11.3274
▁논의하고	-11.3274
▁워커	-11.3274
▁메뉴	-11.3274
▁유혹	-11.3274
▁뜨거	-11.3274
▁설교	-11.3274
▁8000	-11.3275
▁계층	-11.3275
▁삼림	-11.3275
▁밀집	-11.3276
▁이른바	-11.3276
▁글렌	-11.3276
▁미트	-11.3277
▁영예	-11.3278
▁머피	-11.3278
▁규명	-11.3278
▁사진기자	-11.3279
▁매춘부	-11.328
▁광경	-11.328
▁제이미	-11.3281
▁석상	-11.3282
▁방북	-11.3282
▁바퀴	-11.3282
▁80%	-11.3283
▁지폐	-11.3283
▁메달	-11.3284
▁고백	-11.3286
▁도왔다	-11.3287
▁SK	-11.3288
▁악성	-11.329
▁격분	-11.3291
▁맡게	-11.3292
▁농구	-11.3292
▁시술	-11.3292
▁감옥	-11.3295
▁폭발했다	-11.3295
▁야간	-11.3295
▁자매	-11.3296
▁부각	-11.3297
아주	-11.3297
▁올릴	-11.3298
▁경위	-11.3298
▁오락	-11.3298
▁국면	-11.3299
▁시범	-11.3299
▁위법	-11.33
▁자유당	-11.3301
▁장난	-11.3305
▁노동력	-11.3307
▁가두	-11.3307
▁발견돼	-11.3308
▁홈페이지에	-11.3308
▁내주	-11.3311
▁대도시	-11.3311
▁당원	-11.3314
▁호흡기	-11.3316
▁주장해	-11.332
▁비자금	-11.3321
▁우파	-11.3322
ai	-11.3328
▁받았고	-11.3329
▁미니	-11.3331
▁레저	-11.3332
ster	-11.3336
▁구제안	-11.3337
▁방위	-11.3338
▁만든다	-11.3338
▁매트	-11.3339
분기에	-11.3344
▁입원한	-11.3347
▁후임자	-11.3348
▁살해하겠다	-11.335
▁마련하기	-11.3353
▁내정자	-11.3357
▁결과에따르면	-11.3361
▁방문객	-11.3362
▁철저한	-11.3363
년째	-11.3364
tic	-11.3364
▁대원	-11.3365
먼트	-11.3367
허가	-11.3372
▁강조하고	-11.3376
▁쌍	-11.3378
▁각료	-11.3381
▁섞	-11.3382
드레	-11.3385
▁굿	-11.3396
▁대표들은	-11.3396
▁고전	-11.3399
▁돌입했다	-11.3406
▁줄어	-11.3409
▁빌라	-11.3409
▁사랑하는	-11.341
mer	-11.341
▁거치	-11.3415
예비선거	-11.342
2005.1	-11.342
태평양	-11.3421
New	-11.3421
올림픽	-11.3422
큰	-11.3424
월드컵	-11.3424
슈퍼	-11.3426
▁박수	-11.3428
320	-11.3428
▁참가자	-11.3431
에너지	-11.3431
▁결승에서	-11.3432
▁찬사	-11.3437
EC	-11.3438
능력	-11.3441
그런	-11.3444
조합	-11.3445
▁테러범들	-11.3445
▁수반과	-11.3445
위권	-11.3448
▁통로	-11.3448
조각	-11.3448
▁갇혀	-11.3451
▁내리기	-11.3452
tions	-11.3452
▁블로그	-11.3458
되게	-11.3461
노동	-11.3461
▁부수	-11.3462
▁마이크로	-11.3469
▁기어	-11.3471
▁전제	-11.3472
▁나갔다	-11.3477
▁일부에서는	-11.3478
방식	-11.3479
수준	-11.3479
스텐	-11.3487
▁기념일	-11.3487
▁보였	-11.3488
▁수의사	-11.3488
▁말했으며	-11.3494
▁강화했다	-11.3495
▁시민단체	-11.3497
▁줄어들고	-11.3518
▁코커스에서	-11.3518
▁중유	-11.3524
적이지	-11.3529
었기	-11.3531
디어	-11.3547
소득	-11.3549
▁마련했다	-11.3565
▁살리	-11.3568
▁톱	-11.3569
▁주최측	-11.3571
▁지명자	-11.3577
▁범죄자들	-11.3578
▁국경지역에	-11.3581
▁하원에서	-11.3581
▁주문했다	-11.3582
▁아니고	-11.3588
▁여성에게	-11.3589
▁결의안은	-11.3595
지요	-11.3607
▁순례	-11.3615
국민들	-11.362
bu	-11.3629
▁여행사	-11.363
▁압도적	-11.3639
투자	-11.3644
▁요한	-11.3647
▁바탕	-11.3648
▁붙이	-11.3648
▁자회사	-11.3649
▁아담	-11.3652
▁재판소	-11.3654
▁개헌	-11.3655
▁비극적	-11.3658
사원	-11.3659
▁판사들	-11.366
랍	-11.3663
흥	-11.3664
▁안다	-11.3664
옹	-11.3666
▁비공식	-11.3666
▁유명인사	-11.3667
홉	-11.367
▁내셔널	-11.367
벡	-11.367
톡	-11.367
▁200806.1	-11.367
▁BMW	-11.367
▁FTSE	-11.367
▁갤럭시	-11.367
▁곤돌라	-11.367
▁단백질	-11.367
▁로페즈	-11.367
▁보건복지부	-11.367
▁부딪혀	-11.367
▁삼았다	-11.367
▁아웅산수지	-11.367
▁이끌었다	-11.367
▁이끌었던	-11.367
▁조코비치	-11.367
▁집행유예	-11.367
▁초등학교	-11.367
▁카톨릭	-11.367
▁페널티킥	-11.367
▁횟수	-11.367
듬	-11.367
딱	-11.367
▁농작물	-11.367
▁라왈핀디	-11.367
▁원정경기	-11.367
▁카라카스	-11.367
▁크누트	-11.367
▁퍼레이드	-11.367
뇨	-11.367
룽	-11.367
찔	-11.367
▁내비쳤다	-11.367
▁마닐라	-11.367
▁싱가폴	-11.367
▁안타까	-11.367
▁카리스마	-11.367
▁종업원	-11.367
▁콜레라	-11.367
▁수족관	-11.367
▁1/3	-11.367
▁빠질	-11.367
▁동남아시아	-11.367
▁웨스트버지니아	-11.3671
▁빈민가	-11.3671
▁뱅크	-11.3671
▁도덕적	-11.3671
▁살모넬라균	-11.3671
▁원내대표	-11.3671
▁대지진	-11.3671
▁월마트	-11.3671
▁검진	-11.3671
▁가자시티	-11.3671
▁낙찰	-11.3671
▁신용위기	-11.3672
2008.09	-11.3672
▁티켓	-11.3672
▁꾸준	-11.3672
▁부정선거	-11.3672
▁밀접	-11.3672
▁관광산업	-11.3672
▁결승골	-11.3673
▁참패	-11.3673
▁삼엄	-11.3673
▁배럭	-11.3673
▁납치했다	-11.3673
▁울머	-11.3674
▁비싸	-11.3674
▁남겼다	-11.3675
▁부회장	-11.3675
▁오스틴	-11.3675
▁입찰	-11.3675
▁결별	-11.3676
▁기둥	-11.3677
▁이정인	-11.3677
▁사찰	-11.3677
▁경제성장률	-11.3677
▁밀매	-11.3677
▁세레나	-11.3678
▁당분간	-11.3678
▁몸집	-11.3678
▁태양계	-11.3678
▁연립	-11.3679
▁포스터	-11.3679
▁숨지게	-11.3679
▁도착했을	-11.3679
▁면허	-11.368
▁1984	-11.368
▁권유	-11.3681
단체인	-11.3682
▁연구조사	-11.3682
▁2014	-11.3682
▁번영	-11.3683
▁개발도상국	-11.3684
▁보수파	-11.3686
▁외각	-11.3686
▁DC	-11.3687
▁피플	-11.3687
▁무너졌다	-11.3687
▁폭풍우	-11.3687
▁원격	-11.3688
▁보석금	-11.369
▁시사회	-11.3691
▁상반	-11.3691
▁재생	-11.3695
▁우방	-11.3697
게이트	-11.3697
▁발작	-11.3697
▁육성	-11.3698
▁생물학자	-11.37
▁점심	-11.37
▁더이상	-11.3702
▁관심사	-11.3702
▁95%	-11.3703
▁번식	-11.3704
펠드	-11.3705
▁가이드	-11.3706
정신	-11.3707
▁보류	-11.3707
▁크리스티아	-11.3708
쿠폰	-11.3709
▁no	-11.3709
▁심정	-11.3711
▁줄어들었다	-11.3714
▁정상적으로	-11.3714
▁뿐이라	-11.3714
▁후보작	-11.3715
▁감독상	-11.3716
▁투표권	-11.3716
▁작곡가	-11.3718
▁밀수	-11.372
▁입장권	-11.3721
▁일기로	-11.3721
▁실내	-11.3725
▁1-1	-11.3727
▁와서	-11.3727
▁1800	-11.373
▁사이즈	-11.3735
▁댐	-11.3738
느라	-11.3739
▁질서	-11.374
▁101	-11.3741
▁고정	-11.3746
▁감행했다	-11.3749
▁이룬	-11.375
마이어	-11.3756
▁모바일	-11.3758
▁대처하기	-11.3758
PF	-11.3762
▁연관된	-11.3764
▁前	-11.377
▁was	-11.3779
▁3,000	-11.378
▁수잔	-11.3781
▁범죄자	-11.379
▁방콕에서	-11.3791
▁방사	-11.3793
▁Sp	-11.3793
sk	-11.3794
▁친구들과	-11.3797
▁잡혀있	-11.3801
▁사망했고	-11.3803
▁제기한	-11.3811
정상	-11.3814
▁정비	-11.3816
천여	-11.382
▁De	-11.3821
▁살해됐다	-11.3823
▁포기할	-11.3823
▁식으로	-11.3823
▁유대	-11.3829
폭발	-11.3831
▁언제든	-11.3831
춤	-11.3834
▁퇴원	-11.3834
▁기록적인	-11.3835
눈	-11.3836
WHO	-11.3838
▁명인	-11.3838
IOC	-11.3838
사드르	-11.3839
▁정부로부터	-11.3841
오픈	-11.3841
▁지정된	-11.3841
분쟁	-11.3846
▁발생하기	-11.3847
피크	-11.3849
관광	-11.3854
=26	-11.3858
▁닷	-11.3861
정말	-11.3862
MD	-11.3864
▁World	-11.3864
▁사무소	-11.3864
▁수감됐다	-11.3865
▁알파	-11.3869
▁베를린에서	-11.387
▁감기	-11.3875
▁에바	-11.3875
▁과도	-11.3883
▁나르	-11.3884
▁구조대원	-11.389
▁펼치고	-11.3893
▁당원들	-11.3893
▁임신한	-11.3898
▁바스라에서	-11.39
▁발표하지	-11.3901
▁알리기	-11.3901
여개	-11.3913
▁고위관리는	-11.3919
대학교	-11.392
장소	-11.392
▁동원해	-11.392
▁거라고	-11.3925
▁자랑스럽	-11.394
▁해변에서	-11.3941
▁통신과	-11.3949
▁파괴됐다	-11.395
방법	-11.3961
▁보아	-11.3962
▁용인	-11.3964
▁남지	-11.397
▁기념하기	-11.3973
주재	-11.3975
▁고국	-11.3975
-4	-11.3978
▁행한	-11.3984
▁고리	-11.3986
되었으나	-11.3988
▁그날	-11.399
▁통근	-11.3991
▁퍼지	-11.3993
▁의뢰	-11.3994
▁이어진	-11.3994
▁복용한	-11.3998
▁위반한	-11.4005
▁양곤	-11.4006
이라도	-11.4012
▁획득했다	-11.4014
▁미사	-11.4014
▁영구	-11.4014
얼리	-11.4016
▁조달	-11.402
▁국세청	-11.4027
▁누르	-11.4028
▁mor	-11.4029
▁공주	-11.4032
▁석방했다	-11.4036
▁주사	-11.4037
▁후보자들	-11.4037
▁Pa	-11.4041
▁이목	-11.4042
▁홈페이지	-11.4047
ors	-11.4047
▁상업적	-11.4051
▁125	-11.4068
land	-11.4068
▁어디에	-11.4068
▁시작하기	-11.4072
▁버몬트	-11.4074
획	-11.4079
▁경제성장	-11.4081
ook	-11.4086
2007.06	-11.4087
▁SUV	-11.4087
▁가톨릭	-11.4087
▁국가보안법	-11.4087
▁대통합민주신당	-11.4087
▁리얼리티	-11.4087
▁마호메트	-11.4087
▁많았다	-11.4087
▁무크타다	-11.4087
▁무혐의	-11.4087
▁베테랑	-11.4087
▁브로드웨이	-11.4087
▁사카쉬빌리	-11.4087
▁얀코비치	-11.4087
▁엉덩이	-11.4087
▁올바른	-11.4087
▁이데올로기	-11.4087
▁추수감사절	-11.4087
▁캠퍼스	-11.4087
▁컨퍼런스	-11.4087
▁프리메라리가	-11.4087
▁합참의장	-11.4087
돋	-11.4087
뭉	-11.4087
윗	-11.4087
캘	-11.4087
▁금융제재	-11.4087
▁임산부	-11.4087
▁저작권	-11.4087
▁페르난도	-11.4087
궐	-11.4087
쿤	-11.4087
▁백화점	-11.4087
▁제네바	-11.4087
▁횡단	-11.4087
▁휴양지	-11.4087
▁두개골	-11.4087
▁의구심	-11.4087
▁최우수	-11.4087
▁팔루자	-11.4087
▁뮤직	-11.4087
▁링컨	-11.4087
▁테이블	-11.4087
▁번호판	-11.4087
▁도메인	-11.4087
터무니	-11.4087
▁엄중	-11.4087
▁억압	-11.4087
▁뒤덮	-11.4087
▁이소연	-11.4087
▁활력	-11.4087
▁아지즈	-11.4087
▁대중교통	-11.4087
▁소수민족	-11.4088
▁와중에	-11.4088
▁동점골	-11.4088
▁쟁점	-11.4088
▁낙관적	-11.4088
▁표적이	-11.4088
▁범람	-11.4088
▁홈런	-11.4089
▁근접	-11.4089
▁홀랜드	-11.4089
▁궁금	-11.4089
▁계절	-11.409
▁액수	-11.409
ami	-11.409
Brit	-11.409
▁에이미	-11.409
▁지뢰	-11.4091
▁흉기	-11.4092
ical	-11.4092
▁창립	-11.4092
▁제재조치	-11.4092
호르타	-11.4092
2006.11	-11.4093
▁초대형	-11.4093
▁평생	-11.4094
▁inter	-11.4095
▁없었지만	-11.4095
▁피델	-11.4095
▁필수	-11.4097
▁플로	-11.4097
▁심장병	-11.4097
ung	-11.4098
▁포격	-11.4099
▁취해야	-11.4101
▁750	-11.4101
▁완수	-11.4102
▁지칭	-11.4102
▁천연	-11.4103
▁페퍼	-11.4103
▁비율이	-11.4104
▁울프	-11.4105
▁전반적으로	-11.4106
▁감안	-11.4107
▁최상	-11.4107
▁고집	-11.4108
▁동행	-11.4109
▁터진	-11.4109
▁제어	-11.411
▁대담	-11.411
▁걸음	-11.4112
▁반격	-11.4113
▁구입한	-11.4113
▁드문	-11.4114
▁분명하다	-11.4116
Pro	-11.4117
▁사격	-11.4117
▁조업	-11.4117
▁영역	-11.4117
▁이끈	-11.4118
▁원장은	-11.4118
▁건조	-11.4119
▁보수적인	-11.412
▁풍자	-11.412
▁예금	-11.4122
▁인용하여	-11.4122
▁단호	-11.4123
만톤	-11.4126
▁인파	-11.4128
▁작용할	-11.4128
▁가즈니주	-11.413
▁상임	-11.4132
▁휩싸였다	-11.4133
▁지하드	-11.4133
▁호우	-11.4134
cent	-11.4134
▁여정	-11.4135
▁맺었다	-11.4135
▁국민당	-11.4136
▁발사된	-11.414
▁봐	-11.414
그녀	-11.4141
▁치타	-11.4141
▁상원의원직	-11.4141
▁관세	-11.4144
▁행운	-11.4145
▁43%	-11.4145
▁미쳤다	-11.4148
▁두목	-11.4149
▁공장에서	-11.4151
▁한반도에서	-11.4151
▁후임으로	-11.4152
▁1600	-11.4153
oint	-11.4154
▁줄었다	-11.4154
▁어선	-11.4162
▁넘어서	-11.4162
포스	-11.4168
▁발견했으며	-11.4168
▁NFL	-11.4169
▁빚어	-11.4175
▁자치구	-11.4175
베키	-11.4177
슬러	-11.4179
ash	-11.418
▁필립스	-11.4183
▁심각하다	-11.4183
▁흔들리	-11.4185
▁열리기	-11.4187
▁앤더슨은	-11.4188
마트	-11.4189
▁구분	-11.4195
▁공직	-11.4196
▁올드	-11.4196
▁명명	-11.4202
▁배아	-11.4202
▁불과했다	-11.4203
Com	-11.4206
월말	-11.4209
▁경찰청장	-11.4212
▁일종	-11.4213
▁거물	-11.422
▁투자가들	-11.4221
▁쉐	-11.4223
▁의원들과	-11.4225
▁APEC	-11.4225
▁제작자들	-11.4227
▁노르	-11.4228
▁파르	-11.423
▁차지할	-11.4242
▁지지율로	-11.4247
식품	-11.4254
▁헤르	-11.4258
자루	-11.4258
▁만족한다	-11.4259
▁개혁안	-11.4259
▁Do	-11.4263
▁결정될	-11.4267
딕	-11.4272
AM	-11.4274
몇	-11.4275
인터넷	-11.4275
뼈	-11.4277
▁교도	-11.4287
AC	-11.4287
▁공급받	-11.4291
▁루스	-11.4294
연설	-11.43
▁과다	-11.4306
▁세번째	-11.431
▁잡기	-11.4311
▁접근할	-11.4313
▁he	-11.4314
▁홀에서	-11.4317
ord	-11.4322
▁맡기	-11.4326
▁발견되	-11.4329
▁0.2	-11.4333
▁표기	-11.4333
됐기	-11.4334
▁관료들	-11.4334
▁들어가기	-11.4335
▁인정하고	-11.4335
▁미군측	-11.4339
Po	-11.4344
▁지사	-11.4357
마른	-11.4368
▁차원	-11.4368
▁크로	-11.437
▁감자	-11.4391
▁난자	-11.4392
ark	-11.4394
조약	-11.4397
▁괴한들	-11.4409
데요	-11.4409
▁합의안	-11.4412
▁끝내	-11.4419
▁통과할	-11.4423
▁클럽에서	-11.4423
▁내야	-11.4431
▁선호	-11.4433
▁Vi	-11.4433
▁가사	-11.4436
화물	-11.4438
▁경사	-11.4447
▁소방관들	-11.4449
reat	-11.445
▁발사했다	-11.4452
▁시작하는	-11.4458
전화	-11.4462
▁보여준	-11.4468
▁극심	-11.4471
▁중재자	-11.4476
▁겪었	-11.4478
org	-11.4488
▁일반인들	-11.4492
▁과학적	-11.4494
GM	-11.4501
▁오프	-11.4501
▁못하면	-11.4501
▁다국적	-11.4508
▁콜린	-11.4509
▁테네시	-11.4511
▁남겨	-11.4517
롯	-11.4517
엇	-11.4519
▁퇴직	-11.4519
Chinese	-11.4522
▁said	-11.4522
▁그린스펀	-11.4522
▁낙하산	-11.4522
▁닌텐도	-11.4522
▁말았다	-11.4522
▁몬타나	-11.4522
▁무책임	-11.4522
▁버시바우	-11.4522
▁브뤼셀	-11.4522
▁앨라배마	-11.4522
▁없음	-11.4522
▁엔데버호	-11.4522
▁여객선	-11.4522
▁오차범위	-11.4522
▁짝짓기	-11.4522
▁콘크리트	-11.4522
▁콜레스테롤	-11.4522
▁타블로이드	-11.4522
▁프란시스	-11.4522
늄	-11.4522
옌	-11.4522
촨	-11.4522
튠	-11.4522
OECD	-11.4522
▁급상승	-11.4522
▁루마니아	-11.4522
▁무차별	-11.4522
▁벤자민	-11.4522
▁보스니아	-11.4522
▁엔터테인먼트	-11.4522
▁쫓겨	-11.4522
HSBC	-11.4522
▁자이툰	-11.4522
▁저녁식사	-11.4522
▁수마트라	-11.4522
WWF	-11.4522
▁힉스	-11.4522
▁검열	-11.4522
▁유태인	-11.4522
▁안젤리	-11.4522
(27)	-11.4522
▁가볍	-11.4522
=31	-11.4522
(29)	-11.4522
▁기번스	-11.4522
▁사냥꾼	-11.4522
▁의료보험	-11.4522
▁황교수	-11.4523
▁충돌했다	-11.4523
▁LPGA	-11.4523
▁싱글	-11.4523
▁무엇인가	-11.4523
▁아르빌	-11.4524
▁나중에	-11.4524
▁별도로	-11.4524
▁get	-11.4524
▁state	-11.4524
▁자본주의	-11.4524
▁토끼	-11.4524
2008.0	-11.4525
▁자살폭탄	-11.4525
▁줄어든	-11.4525
▁동맹관계	-11.4525
▁Star	-11.4525
light	-11.4525
▁보도자료	-11.4526
▁간첩	-11.4526
▁평창	-11.4526
▁토로했다	-11.4526
▁이루어질	-11.4526
학자인	-11.4526
▁싸울	-11.4527
▁신념	-11.4528
▁앙리	-11.4528
▁총격사건	-11.4528
▁철거	-11.4528
▁친밀	-11.4529
▁보였지만	-11.4529
▁납부	-11.453
ZA	-11.453
▁증산	-11.453
▁늘어난	-11.453
▁관행	-11.4531
▁친절	-11.4531
▁왔으며	-11.4531
▁해준다	-11.4531
▁팔렸다	-11.4532
▁테네시주	-11.4532
▁모닝	-11.4533
▁누설	-11.4534
▁통상	-11.4534
▁받았습니다	-11.4534
▁단절	-11.4534
▁지나친	-11.4534
▁테러공격	-11.4535
▁우편	-11.4535
▁매사추세츠주	-11.4535
▁샤론	-11.4535
▁스토	-11.4535
▁재능	-11.4536
▁잔디	-11.4536
▁한국전쟁	-11.4537
▁바이오	-11.4537
▁911	-11.4537
▁동남	-11.4537
▁털어	-11.4538
▁HD	-11.4539
▁책임감	-11.4539
론자들	-11.4539
▁서열	-11.454
▁분양	-11.454
▁관계자에따르면	-11.4541
▁윤리적	-11.4541
케르	-11.4541
▁불경기	-11.4542
▁강화하기	-11.4542
▁증가시키	-11.4543
▁ban	-11.4543
▁태어났다	-11.4543
▁감동	-11.4543
▁뉴저지주	-11.4545
▁급파	-11.4545
▁만행	-11.4546
▁2~3	-11.4547
▁변동	-11.4547
▁동요	-11.4547
살짜리	-11.4547
▁질식	-11.4547
▁도박	-11.4549
▁사절	-11.4549
▁테크	-11.4552
▁상속	-11.4554
▁생선	-11.4555
▁신설	-11.4555
▁대승	-11.4556
▁참수	-11.4556
▁섬유	-11.4557
▁태아	-11.4559
▁탈세	-11.4559
no	-11.456
▁상징적인	-11.4561
▁들어보	-11.4563
▁나라들	-11.4563
▁보행	-11.4564
▁탈당	-11.4568
▁불거	-11.4568
▁신종	-11.4569
▁버크	-11.4571
▁로즈	-11.4572
▁반란	-11.4572
▁대신해	-11.4572
리터	-11.4573
런스	-11.4573
▁외모	-11.4573
▁피랍됐	-11.4574
▁스노	-11.4575
▁항해	-11.4575
▁부자	-11.4576
▁비행선	-11.4577
▁똑	-11.4577
▁양호	-11.4577
▁말라위	-11.4578
▁재계	-11.4584
▁피터슨	-11.4585
▁교통부	-11.4586
▁유타	-11.4587
▁총살	-11.4587
▁끝나지	-11.4587
▁억류된	-11.4588
▁기대된다	-11.4592
▁답변했다	-11.4593
▁서쪽으로	-11.4595
하겠지만	-11.4595
클린	-11.4596
▁par	-11.4598
▁주둔군	-11.4599
▁직면한	-11.46
▁양당	-11.4603
▁봉인	-11.4604
▁카디	-11.4604
클레	-11.4606
▁일이었다	-11.4607
▁쉴	-11.4607
▁말했었다	-11.4609
▁효과적인	-11.4612
▁요구해	-11.4617
▁서부지역	-11.462
▁내리지	-11.462
▁의뢰인	-11.4625
▁허리	-11.4625
▁실종됐다고	-11.4626
▁공격하기	-11.4626
조차도	-11.4626
▁끝내고	-11.4627
▁불가능한	-11.4628
다소	-11.4629
▁허용하는	-11.463
▁부상했으며	-11.4632
▁의미하는	-11.4633
겼으며	-11.4634
▁일어	-11.4638
▁덩어리	-11.4642
▁진정시키	-11.4642
▁전술	-11.4644
▁일조	-11.4645
▁모스	-11.4647
▁입장이다	-11.465
eep	-11.4651
▁근거지	-11.4656
▁이동했다	-11.4659
▁작품상	-11.4661
▁생각된다	-11.4663
eac	-11.4666
▁230	-11.4666
▁추정하	-11.4671
▁수습	-11.4678
▁지불할	-11.468
▁경사는	-11.4681
▁참가하는	-11.4685
▁도달했다	-11.4687
▁천명	-11.469
form	-11.469
▁결승전에	-11.4695
▁이행하	-11.4696
▁참가국들	-11.4696
▁살상	-11.4697
▁휩싸	-11.4699
▁해치	-11.47
▁시선	-11.4706
into	-11.4719
쌍	-11.4726
▁대학생들	-11.4726
▁심리학	-11.4726
즐	-11.4728
콩	-11.4729
▁두려워하	-11.4729
티베트	-11.4729
투쟁	-11.473
클럽	-11.473
▁마르코	-11.4731
FTA	-11.4731
카메라	-11.4732
한나라당	-11.4732
반응	-11.4734
▁Gr	-11.4734
▁제조회사	-11.4737
시안	-11.4738
▁소행	-11.4741
▁주도하고	-11.4742
▁설립한	-11.4746
스위스	-11.4747
▁실시됐다	-11.4752
▁보도된	-11.4753
▁지미	-11.4755
차관	-11.4759
▁올렸	-11.4759
▁경고하고	-11.4759
▁리사	-11.4762
▁이견	-11.4765
▁내용이다	-11.4767
열차	-11.4767
▁치료제	-11.4768
▁후안	-11.4783
▁체인	-11.4789
▁안개	-11.4791
▁모였다	-11.4793
때로는	-11.4794
비드	-11.4795
▁경상	-11.4795
▁서울대	-11.4799
▁법무	-11.48
▁시작한다	-11.4801
▁Ri	-11.4808
▁수행했다	-11.4817
▁아파트에서	-11.4828
▁판매되	-11.483
▁주립	-11.4833
▁마련된	-11.484
▁모여들	-11.4846
아무	-11.4851
이어서	-11.4851
▁확신하	-11.4854
▁엔지니어	-11.4861
▁세라	-11.4863
공원	-11.4863
▁Su	-11.4873
▁선포한	-11.4875
외교	-11.4888
팀장은	-11.4892
▁사망했	-11.4893
▁파견했다	-11.4895
정치적	-11.4905
▁위반했다	-11.4908
걸스	-11.4913
▁서있	-11.4915
시프	-11.4918
차원	-11.4924
▁울리	-11.4927
▁승려	-11.4936
컷	-11.4941
ress	-11.4942
▁수백만명	-11.4947
▁이용자	-11.4949
▁America	-11.4949
▁필요성	-11.4959
므	-11.4959
▁검문	-11.4966
▁담겨	-11.4966
재단	-11.4968
정당	-11.497
▁발령	-11.497
▁도착해	-11.4973
훔	-11.4974
▁근본주의	-11.4974
▁구조됐다	-11.4974
▁빨간	-11.4975
펀	-11.4976
갱	-11.4976
▁England	-11.4976
뻔	-11.4976
2007.03	-11.4976
Australia	-11.4976
▁Association	-11.4976
▁BBK	-11.4976
▁issue	-11.4976
▁president	-11.4976
▁국제사면위원회	-11.4976
▁내다봤다	-11.4976
▁대량살상무기	-11.4976
▁돈세탁	-11.4976
▁로맨틱	-11.4976
▁롱고리아	-11.4976
▁몰디브	-11.4976
▁부정부패	-11.4976
▁선거캠페인	-11.4976
▁손해배상	-11.4976
▁슈나이더	-11.4976
▁스탠리	-11.4976
▁아이슬란드	-11.4976
▁애널리스트	-11.4976
▁언색호	-11.4976
▁자이언트	-11.4976
▁전화통화	-11.4976
▁좋았다	-11.4976
▁찍었다	-11.4976
▁참모총장	-11.4976
▁카메론	-11.4976
▁클레이코트	-11.4976
▁플레이오프	-11.4976
▁혐오	-11.4976
밭	-11.4976
셜	-11.4976
썩	-11.4976
츄	-11.4976
파이낸셜	-11.4976
폴라로이드	-11.4976
Human	-11.4976
United	-11.4976
▁가금류	-11.4976
▁황박사	-11.4976
▁크리켓	-11.4976
▁올랜도	-11.4976
▁갱신	-11.4976
▁태어나	-11.4976
▁그렇다면	-11.4976
▁탑재	-11.4977
▁프리킥	-11.4977
▁선진국	-11.4977
▁정부청사	-11.4977
▁곤란	-11.4977
▁발레리	-11.4977
▁진원지	-11.4977
▁라시드	-11.4977
▁퇴치	-11.4977
▁접어들	-11.4977
(24)	-11.4977
(21)	-11.4977
▁페인트	-11.4977
▁격돌한	-11.4977
▁리더십	-11.4977
▁설문조사	-11.4977
▁선제골	-11.4977
▁쓰러졌	-11.4977
▁공동성명	-11.4978
▁삼성그룹	-11.4978
괴롭	-11.4978
▁소요사태	-11.4978
▁다툼	-11.4978
▁푸켓	-11.4978
▁헤어	-11.4978
▁Lee	-11.4978
▁이틀째	-11.4978
▁불쾌감	-11.4979
▁유시프	-11.4979
▁곳곳에서	-11.4979
▁있겠지만	-11.4979
▁51%	-11.4979
▁반도체	-11.498
▁지방선거	-11.498
▁통계청	-11.498
▁페트로	-11.4981
▁투항	-11.4982
▁물러난	-11.4982
▁당첨	-11.4982
후쿠다	-11.4982
▁기념품	-11.4983
▁짙	-11.4983
▁평등	-11.4983
▁다룰	-11.4983
▁발송	-11.4984
▁헌터	-11.4984
▁터너	-11.4984
▁종말	-11.4984
▁고등	-11.4985
▁미술관	-11.4985
▁감각	-11.4986
▁단축	-11.4986
▁대기권	-11.4987
▁금지령	-11.4987
▁늘려	-11.4988
▁검시관	-11.4988
▁정교회	-11.4989
▁출간	-11.4989
▁저자인	-11.4991
▁중단된	-11.4992
▁해산물	-11.4993
▁성능	-11.4993
▁마텔	-11.4993
▁본래	-11.4994
▁솜	-11.4995
▁북경	-11.4995
▁무패	-11.4995
▁인천	-11.4995
▁가나	-11.4995
▁일삼	-11.4995
▁프로디	-11.4995
▁나이키	-11.4995
레이트	-11.4996
▁온천	-11.4997
▁황제	-11.4997
▁지난밤	-11.4997
▁나온다	-11.4998
▁교역	-11.4998
▁바스크	-11.4998
▁방침이다	-11.4999
카우	-11.4999
▁공범	-11.4999
▁방위군	-11.4999
▁린치	-11.5
▁재료	-11.5
▁설립자	-11.5002
▁빈번	-11.5003
▁콜린스	-11.5004
시께	-11.5005
▁현직	-11.5007
▁온실	-11.5007
▁끌어들이	-11.5008
▁비정부	-11.501
▁노벨상	-11.5014
▁순회	-11.5015
▁역전	-11.5016
▁풀어주	-11.5017
▁피고인들	-11.5018
▁연정	-11.5018
▁표한다	-11.5019
▁영아	-11.502
▁선동	-11.502
▁본즈	-11.5021
학생들	-11.5021
▁낮게	-11.5022
▁자란	-11.5026
▁용서	-11.5026
ja	-11.5029
링턴	-11.503
▁딴	-11.503
▁샤프	-11.5032
▁감염자	-11.5033
▁상실	-11.5034
▁공표	-11.5035
ull	-11.5037
▁450	-11.5038
▁결과에따라	-11.5039
▁주차장에서	-11.5039
▁반감	-11.5042
▁240	-11.5044
관리국	-11.5044
▁42%	-11.5044
▁주입	-11.5046
▁연상	-11.5048
▁파기	-11.5048
▁배정	-11.505
▁보호소	-11.5055
▁투수	-11.5057
▁피우	-11.5059
▁시사했다	-11.5061
▁외계인	-11.5063
▁발표하면서	-11.5065
▁down	-11.5066
▁알아내	-11.5067
▁연어	-11.5069
▁190	-11.507
▁경유	-11.5073
▁판명	-11.5073
보트	-11.5074
용품	-11.5078
▁비중	-11.508
▁확인하지	-11.5084
방향	-11.5086
▁들어서	-11.5091
▁내려오	-11.5092
▁고기	-11.5092
▁영해	-11.5093
▁외교관들	-11.5095
▁살아있는	-11.5098
▁선보였	-11.5099
▁전통적으로	-11.5099
▁FC	-11.5101
하트	-11.5102
▁아카	-11.5106
▁펴	-11.511
38	-11.5114
▁밝혀지	-11.5117
▁관여한	-11.5118
▁아랍어	-11.5119
코르	-11.513
▁조직원들	-11.5131
▁악명	-11.5131
▁So	-11.5142
-5	-11.5143
해줬다	-11.5144
▁분명한	-11.5149
▁진상	-11.5154
▁배달	-11.516
▁직위	-11.5161
▁왕위	-11.5165
▁앤드	-11.5168
▁신성	-11.5174
▁상표	-11.5174
▁진행하는	-11.5181
▁계속됐다	-11.5189
▁주립대학	-11.5189
▁성전	-11.5191
나갔다	-11.5196
▁압수했다	-11.5196
▁쓰지	-11.5196
캔	-11.5199
싸	-11.5199
따	-11.52
어요	-11.5201
2008.12	-11.5203
시리즈	-11.5205
공화국	-11.5205
무샤라프	-11.5206
▁금지된	-11.5206
▁외곽에서	-11.5207
웨스트	-11.521
2008	-11.5213
모델	-11.5216
UN	-11.5219
▁사실이다	-11.5237
집단	-11.5241
▁결정하기	-11.5252
▁관계자와	-11.5253
▁고민	-11.5257
▁지배하	-11.5258
LA	-11.5259
▁팔리	-11.5262
▁이혼했다	-11.5262
수퍼	-11.5263
▁있으면	-11.5265
▁파괴된	-11.527
티브	-11.5275
상품	-11.5278
웃으며	-11.5291
탈리아	-11.5294
▁중태라	-11.53
▁당선된	-11.5304
▁여진	-11.5304
▁잡혀	-11.5309
fi	-11.531
적당한	-11.5313
하기위해	-11.5313
마저	-11.5317
▁토론회에서	-11.5321
코브	-11.5328
▁숨지	-11.533
민들	-11.5332
혁명	-11.5335
▁여러분들	-11.5335
▁앤더슨	-11.5338
▁여자들	-11.5341
십만	-11.5346
프레스	-11.535
Man	-11.5354
군사	-11.5367
▁연기됐다	-11.5371
▁참가국	-11.5375
▁한국측	-11.5378
스파이스	-11.5386
▁있을까	-11.5387
▁실종됐다	-11.5388
▁항의했다	-11.539
▁격렬	-11.54
▁남부지역	-11.541
▁경호원들	-11.5412
▁하스	-11.5423
▁숨졌	-11.5423
▁납치범들	-11.5425
기종	-11.5427
▁취했	-11.5428
ld	-11.5437
려면	-11.5438
▁영화화	-11.5439
▁이용자들	-11.544
붕	-11.5447
뷔	-11.5449
▁선정했다	-11.545
갤	-11.545
봇	-11.5451
PGA	-11.5452
뮤	-11.5453
툰	-11.5453
▁Pakistan	-11.5453
볕	-11.5453
봅	-11.5453
NYMEX	-11.5453
inancial	-11.5453
world	-11.5453
▁death	-11.5453
▁high	-11.5453
▁minister	-11.5453
▁가라앉	-11.5453
▁가로질러	-11.5453
▁가이트너	-11.5453
▁농산물	-11.5453
▁높았다	-11.5453
▁디얄라	-11.5453
▁라스무센	-11.5453
▁라우터바흐	-11.5453
▁레드삭스	-11.5453
▁로널드	-11.5453
▁맞춘	-11.5453
▁믿음	-11.5453
▁밀리밴드	-11.5453
▁빈라덴	-11.5453
▁선생님	-11.5453
▁스콜세지	-11.5453
▁와지리스탄	-11.5453
▁유네스코	-11.5453
▁인디언	-11.5453
▁지구온난화	-11.5453
▁질렀다	-11.5453
▁코네티컷	-11.5453
▁콘텐트	-11.5453
▁테헤란	-11.5453
▁펌프	-11.5453
▁페르난데스	-11.5453
▁포틀랜드	-11.5453
▁푸에르토리코	-11.5453
덟	-11.5453
윙	-11.5453
하였으나	-11.5453
▁가석방	-11.5453
▁졸릭	-11.5453
▁주미대사	-11.5453
쯔	-11.5453
▁무중력	-11.5453
▁브라더스	-11.5453
▁자부심	-11.5453
ould	-11.5453
▁아메드	-11.5453
WTI	-11.5453
▁본거지	-11.5453
▁오마바	-11.5453
깜짝	-11.5453
▁획기적	-11.5453
▁텔레콤	-11.5453
GPS	-11.5453
▁남동쪽	-11.5453
▁비평가들은	-11.5453
▁트레이드	-11.5453
▁위안화	-11.5453
▁나이로비	-11.5453
▁남서쪽	-11.5453
▁주니어	-11.5453
▁놀랍	-11.5453
▁지저스	-11.5453
▁블레이크	-11.5453
▁소아과	-11.5453
▁딜리	-11.5453
▁강아지	-11.5453
▁아이팟	-11.5453
▁떠오르	-11.5453
이건희	-11.5454
▁납북	-11.5454
▁불러일으키	-11.5454
ECB	-11.5454
▁화폐	-11.5454
▁may	-11.5454
▁않으려	-11.5455
▁포옹	-11.5455
▁취업	-11.5455
▁왕궁	-11.5455
▁완승	-11.5456
스테이트	-11.5456
▁석탄	-11.5456
▁재처리	-11.5456
▁점유율	-11.5456
▁그린랜드	-11.5457
2008.02	-11.5457
▁자유로운	-11.5457
▁기차역	-11.5457
▁외교정책	-11.5457
▁프라임	-11.5457
▁음란물	-11.5457
▁난폭	-11.5458
▁아바타	-11.5459
▁연습	-11.5459
▁철강	-11.5459
▁우익	-11.5459
▁1953	-11.546
▁주머니	-11.546
▁청색	-11.546
▁소식통에따르면	-11.546
▁감행한	-11.5461
▁은폐	-11.5461
▁사촌	-11.5462
▁1975	-11.5462
▁계단	-11.5463
▁화물선	-11.5464
▁투병	-11.5464
▁추모식	-11.5465
▁잠재력	-11.5465
▁하사	-11.5466
▁함정	-11.5466
함으로서	-11.5467
▁증오	-11.5467
▁앞서있다	-11.5468
▁선언문	-11.5468
▁긴장감	-11.5468
▁중국인들	-11.5468
▁복부	-11.5468
▁디에고	-11.5468
▁가졌으며	-11.5469
▁선거자금	-11.5469
▁익사	-11.5469
▁정글	-11.5469
▁기부금	-11.547
▁미시간주	-11.5471
▁엔화	-11.5471
▁시청률	-11.5473
▁웃음	-11.5474
▁우주센터	-11.5474
▁핵문제	-11.5475
▁유언	-11.5476
▁변형	-11.5476
▁보험금	-11.5478
▁분배	-11.5479
▁판결문	-11.548
▁교정	-11.5481
▁문화적	-11.5481
▁투하	-11.5483
▁달렸다	-11.5483
▁원한다면	-11.5484
▁대열	-11.5484
▁공공장소에서	-11.5485
▁붙였다	-11.5486
▁합법적으로	-11.5487
▁시작됐으며	-11.5489
▁시합	-11.549
▁지도력	-11.5492
▁분리주의자들	-11.5494
▁폐허	-11.5501
My	-11.5501
▁레노	-11.5501
▁시작했고	-11.5502
▁종전	-11.5505
▁루즈	-11.5507
▁3-1	-11.5509
▁치우	-11.5509
▁전념	-11.551
▁들어왔다	-11.5511
▁루디	-11.5513
▁의존하고	-11.5518
▁예상치	-11.5518
▁펜실베이니아주	-11.552
▁금주	-11.5521
생물학	-11.5524
▁팔아	-11.5525
▁결성	-11.5526
▁내달	-11.5528
▁철학	-11.5528
▁조사팀	-11.5529
▁간호사	-11.553
▁di	-11.553
▁보건당국	-11.553
▁의사당	-11.5532
▁의류	-11.5532
▁가계	-11.5535
AI	-11.5536
▁이끌어내	-11.554
▁돌아간	-11.5541
▁해법	-11.5542
▁제기되	-11.5545
판매	-11.5546
▁수영장	-11.5547
▁보험사	-11.5549
▁목표물	-11.5552
▁치아	-11.5553
▁양곤에서	-11.5557
매치	-11.556
▁이행할	-11.5562
▁출판사	-11.5571
▁후속	-11.5574
▁시작했으며	-11.5574
▁동상	-11.5577
▁음와	-11.5578
폴리스	-11.558
▁220	-11.5581
▁조화	-11.5582
use	-11.5582
▁기록했으며	-11.5586
▁들어주	-11.5588
▁남부지역에서	-11.5593
▁하퍼	-11.5595
▁돌아왔	-11.5599
▁주심	-11.56
▁불필요	-11.5601
▁103	-11.5602
▁입히	-11.5605
▁혼인	-11.5605
▁측면에서	-11.5605
있지	-11.5606
▁비티	-11.5608
▁호주군	-11.561
▁착용한	-11.5621
ix	-11.5622
▁기업체	-11.5624
▁손님들	-11.5628
▁몰린	-11.5631
▁한국계	-11.5638
▁카불에서	-11.5639
▁기르	-11.564
▁적게	-11.564
▁앉아있	-11.5641
▁손상된	-11.5642
▁제시할	-11.5643
▁저명	-11.5648
▁실리	-11.5649
▁설립된	-11.5653
▁Te	-11.5654
▁자식	-11.5654
▁떠나지	-11.5655
훈련	-11.5665
▁임명했다	-11.5668
▁만들었	-11.5669
▁결심했다	-11.5669
하였고	-11.567
▁완화하기	-11.5674
▁등록된	-11.5676
88	-11.568
남북	-11.568
▁대응할	-11.5689
▁등정	-11.569
▁식당에서	-11.5692
▁결혼했다	-11.5695
ler	-11.5697
보좌관	-11.5705
평화로운	-11.5705
뒤	-11.5706
하마스	-11.5706
▁정국	-11.5707
폭풍	-11.5707
물리학	-11.5709
▁운전자들	-11.571
었었다	-11.5719
▁갇혀있	-11.5721
▁중태	-11.5732
▁폭락했다	-11.5735
결국	-11.5738
▁일본인들	-11.574
모양	-11.5745
▁요구한다	-11.5747
파업	-11.5749
▁퇴원했다	-11.5751
▁정직	-11.5752
rap	-11.5753
▁순수	-11.5758
아갈	-11.5759
자녀	-11.5765
▁소방대원	-11.5767
▁중국정부	-11.5768
식량	-11.5777
▁강화된	-11.5786
▁우주비행사들	-11.5788
▁충족	-11.5792
시리아	-11.5796
▁간부들	-11.5814
▁변수	-11.5819
노엘	-11.5827
보리스	-11.584
▁한국정부	-11.5844
하느냐	-11.5845
PD	-11.5863
▁알려졌	-11.5865
▁본부장	-11.5866
▁느끼지	-11.5869
MC	-11.5876
하원	-11.5881
▁나사	-11.5881
▁월터	-11.589
▁기록됐다	-11.5892
륙	-11.5894
▁자원봉사	-11.5895
▁du	-11.59
보관소	-11.5915
▁일본군	-11.5922
▁정규	-11.5924
▁몰렸	-11.5926
▁태어났	-11.5928
▁시달	-11.593
▁우주비행	-11.5932
▁AK	-11.5932
▁몰리	-11.5936
▁미주리	-11.5943
욱	-11.5943
▁메모리	-11.5943
▁떠올	-11.5944
▁하위	-11.5945
쁘	-11.5945
▁있었	-11.5948
▁벌여왔	-11.5949
▁얼룩	-11.5952
그렇다	-11.5952
▁WASHINGTON	-11.5953
굽	-11.5953
퓨	-11.5953
life	-11.5953
▁UFO	-11.5953
▁peace	-11.5953
▁̋미국	-11.5953
▁갖췄다	-11.5953
▁그랜드슬램	-11.5953
▁김경준	-11.5953
▁네그로폰테	-11.5953
▁막았다	-11.5953
▁맞교환	-11.5953
▁매카트니	-11.5953
▁베스트셀러	-11.5953
▁생태계	-11.5953
▁소렌스탐	-11.5953
▁식이요법	-11.5953
▁신용경색	-11.5953
▁신천옹	-11.5953
▁쓰러져	-11.5953
▁아라파트	-11.5953
▁아흐마디네자드	-11.5953
▁않았기	-11.5953
▁얼어붙	-11.5953
▁영유권	-11.5953
▁우비넨	-11.5953
▁윌리암	-11.5953
▁평론가들은	-11.5953
▁포츠머스	-11.5953
▁현수막	-11.5953
배아줄기세포	-11.5953
캣	-11.5953
콴	-11.5953
푼	-11.5953
▁about	-11.5953
▁뉴욕상업거래소	-11.5953
▁국가정보원	-11.5953
▁만델라	-11.5953
▁알자지라	-11.5953
▁해리왕자	-11.5953
▁start	-11.5953
▁훔쳐	-11.5953
▁눈보라	-11.5953
▁마리화나	-11.5953
▁마스터스	-11.5953
▁파이프라인	-11.5953
▁갱단	-11.5953
Two	-11.5953
UAE	-11.5953
▁프리츨	-11.5953
▁2/3	-11.5953
사관학교	-11.5953
▁발자국	-11.5953
▁몬테	-11.5953
▁함부르크	-11.5953
▁매도프	-11.5953
▁추종자들	-11.5953
▁몰아넣	-11.5953
▁침실	-11.5953
▁이뤄져야	-11.5953
▁땅콩	-11.5953
▁있느냐	-11.5953
▁참의원	-11.5953
▁에어웨이	-11.5953
▁프레슬리	-11.5953
▁가르시아	-11.5953
▁혜성	-11.5953
▁봉착	-11.5954
▁투옥	-11.5954
▁파이프	-11.5954
▁흘리	-11.5954
2007.04	-11.5954
▁거세지	-11.5954
▁삭스	-11.5954
▁도미니카	-11.5955
▁심어	-11.5955
▁출항	-11.5955
▁퍼뜨	-11.5955
▁가져왔다	-11.5955
▁창업자	-11.5955
▁Ge	-11.5955
▁잡혔다	-11.5955
▁동물보호	-11.5955
▁선고받았다	-11.5956
▁심리학자	-11.5956
▁신분증	-11.5956
▁척추	-11.5956
▁call	-11.5957
▁거슬러	-11.5957
▁금연법	-11.5957
▁위헌	-11.5957
▁육박	-11.5957
▁우호적	-11.5958
▁지방법원	-11.5958
▁생물학적	-11.5959
▁증권거래소	-11.5959
▁연애	-11.596
▁솔직하	-11.596
▁이민법	-11.5961
▁일환	-11.5961
시키다	-11.5961
▁인준	-11.5961
▁사절단	-11.5961
▁인질극	-11.5961
▁없었으며	-11.5963
▁버려진	-11.5964
▁바이든	-11.5964
▁진열	-11.5964
▁예외	-11.5964
▁독립국가	-11.5964
▁피해여성	-11.5964
▁첫째	-11.5965
▁사탕	-11.5966
▁31%	-11.5966
▁단언	-11.5967
▁정황	-11.5967
▁조사결과	-11.5968
▁물리적	-11.5969
▁호박	-11.597
▁남긴	-11.5971
▁사이먼	-11.5971
▁파타당	-11.5971
▁카이로	-11.5972
▁승진	-11.5972
▁경색	-11.5972
▁조율	-11.5972
now	-11.5973
▁교실	-11.5973
▁고고학자	-11.5974
▁유머	-11.5974
▁부착	-11.5974
프라이스	-11.5975
▁복사	-11.5975
▁버려	-11.5975
▁따내	-11.5976
▁데이트	-11.5977
▁조립	-11.5978
▁체포됐으며	-11.5979
▁시몬	-11.5979
▁투여	-11.598
▁콜로라도주	-11.5984
▁동거	-11.5984
▁make	-11.5985
▁정박	-11.5986
▁살리기	-11.5987
▁크로스	-11.5989
멜라	-11.5993
▁인수위원회	-11.5993
▁정부기관	-11.5993
▁아이오와주	-11.5993
▁납치범	-11.5994
▁힐러리경	-11.5994
▁박차	-11.5996
▁만들어내	-11.5999
▁치료법	-11.6
▁조각상	-11.6004
▁다행	-11.6006
▁금융계	-11.6006
▁합법적인	-11.6007
▁스위	-11.6009
▁만회	-11.6009
▁관광객들에게	-11.601
-8	-11.6011
▁태세	-11.6011
▁문학	-11.6013
▁도피	-11.6014
▁따라잡	-11.6016
▁케이스	-11.6017
▁실었다	-11.6018
▁채무	-11.6018
▁근본	-11.6018
▁2.5	-11.6018
▁번개	-11.602
▁연주자	-11.602
▁선제	-11.6028
▁실바	-11.6028
▁되려	-11.6029
▁발표되지	-11.6029
▁조세	-11.6029
▁레이드	-11.603
▁못했으며	-11.603
▁1400	-11.6031
▁resign	-11.6032
▁친척들	-11.6033
▁국제법	-11.6033
▁배역	-11.6033
▁Me	-11.6033
▁comp	-11.6033
명씩	-11.6037
외국	-11.6042
▁128	-11.6042
▁기각했다	-11.6043
▁상승하며	-11.6044
▁토드	-11.6047
▁끌어내	-11.6048
▁민주적	-11.6053
▁112	-11.6054
▁우주복	-11.6054
▁말했으나	-11.6057
▁주목할	-11.6061
▁조그	-11.6066
▁왕국	-11.6067
▁추락해	-11.6073
▁기용	-11.6074
▁전용기	-11.608
공학	-11.6081
▁자진	-11.6089
▁제조업	-11.6092
▁투표소	-11.6093
여금	-11.6093
▁나타난다	-11.6096
▁처했다	-11.6098
▁구속했다	-11.6103
▁대면	-11.6106
▁북해	-11.6109
▁고르	-11.6112
▁서울시장	-11.6117
▁길게	-11.6118
스버그	-11.6123
arly	-11.6125
▁연행됐다	-11.6126
▁박스	-11.6134
▁바라보	-11.6139
▁매력적	-11.6142
▁주시하	-11.6143
▁위협받	-11.615
▁토레	-11.6151
▁이슬라마바드에서	-11.6159
▁지나간	-11.6161
▁다치	-11.617
umb	-11.6173
▁기관들	-11.6174
타카	-11.618
▁정보원	-11.6181
▁죽였다	-11.6186
▁히스	-11.6191
▁도시들	-11.6192
앞	-11.6192
▁News	-11.6194
▁이사장	-11.6195
▁영화관	-11.6196
▁고고학	-11.6207
▁웨스	-11.6218
▁북한측	-11.6221
헌법	-11.6227
World	-11.6228
▁노린	-11.6228
프로그램	-11.6229
▁장점	-11.6229
꽃	-11.6229
턱	-11.623
▁북한군	-11.623
끝	-11.6231
붙	-11.6231
닷	-11.6231
왜	-11.6231
다이애나	-11.6231
아메리카	-11.6232
▁광장에서	-11.6233
가능한	-11.6233
보험	-11.6241
소송	-11.625
지휘	-11.6256
업무	-11.6258
▁전사들	-11.6262
ound	-11.6265
ally	-11.6266
▁국제적으로	-11.6269
▁농촌	-11.627
▁단계적	-11.627
▁구속됐다	-11.6271
▁일부분	-11.6275
▁자연적	-11.6276
▁높이기	-11.6277
친구	-11.6279
혈관	-11.6283
▁이루어져	-11.6284
▁1.5	-11.6292
▁노출되	-11.6299
▁걸렸	-11.632
보안	-11.6334
▁잔인	-11.6335
▁개정된	-11.634
요금	-11.6343
▁유대인들	-11.6347
61	-11.6348
▁시청자	-11.6359
연금	-11.6359
▁동의한다	-11.6359
▁방문한다	-11.6376
▁근본적	-11.6378
중앙	-11.6383
▁조사관	-11.6386
▁밀리	-11.6395
▁십년	-11.6397
▁위험하다	-11.6413
▁있음에	-11.6418
▁악화된	-11.6421
▁별개	-11.6423
▁숨어	-11.6423
▁방문했	-11.6423
▁들어왔	-11.6429
▁외계	-11.6437
▁나타냈	-11.644
ful	-11.6445
▁꼬리	-11.6457
워스	-11.6458
▁슈퍼대의원	-11.6463
룡	-11.6476
깃	-11.6476
▁힌두	-11.6477
▁이용했다	-11.6478
돔	-11.6479
ject	-11.6479
▁미항공우주국	-11.6479
▁방코델타아시아	-11.6479
▁중앙정보국	-11.6479
풋	-11.6479
2007.01	-11.6479
8,000	-11.6479
▁9/11	-11.6479
▁Bank	-11.6479
▁GNP	-11.6479
▁Life	-11.6479
▁Wild	-11.6479
▁foreign	-11.6479
▁가솔린	-11.6479
▁갤러리	-11.6479
▁국토안보부	-11.6479
▁금강산	-11.6479
▁꿀벌	-11.6479
▁낳았다	-11.6479
▁니스텔로이	-11.6479
▁디스플레이	-11.6479
▁뚜렷	-11.6479
▁매릴랜드	-11.6479
▁바랍니다	-11.6479
▁박정희	-11.6479
▁버틀러	-11.6479
▁불매운동	-11.6479
▁셰퍼드	-11.6479
▁신행정수도	-11.6479
▁싫어하	-11.6479
▁앙카라	-11.6479
▁애틀랜티스호	-11.6479
▁와이오밍	-11.6479
▁요하네스버그	-11.6479
▁즐거움	-11.6479
▁초콜릿	-11.6479
▁토튼햄	-11.6479
▁투탕카멘	-11.6479
▁팽팽	-11.6479
▁핸드폰	-11.6479
▁헝가리	-11.6479
늬	-11.6479
뜯	-11.6479
륭	-11.6479
빔	-11.6479
인터내셔널	-11.6479
자르카위	-11.6479
콥	-11.6479
▁버클리	-11.6479
▁잠수함	-11.6479
▁재규어	-11.6479
▁키드먼	-11.6479
벵	-11.6479
▁밀라노	-11.6479
▁자민당	-11.6479
▁학부모	-11.6479
▁200809.1	-11.6479
▁노워크	-11.6479
▁딜런	-11.6479
▁영사관	-11.6479
▁합법화	-11.6479
▁나뉘어	-11.6479
▁순이익	-11.6479
▁중소기업	-11.6479
▁선거유세	-11.6479
▁조선일보	-11.6479
▁예정이었으나	-11.6479
▁홈구장	-11.6479
dition	-11.6479
▁기다렸다	-11.6479
▁원자재	-11.6479
▁폭넓	-11.6479
▁오사카	-11.6479
▁대운하	-11.6479
▁오페라	-11.6479
▁액션	-11.6479
▁하루종일	-11.6479
▁반짝이	-11.6479
▁소령은	-11.6479
▁나이트클럽	-11.6479
▁막바지	-11.6479
(33)	-11.6479
▁관절염	-11.6479
▁핑크	-11.6479
▁강원도	-11.6479
▁외딴	-11.6479
▁Prim	-11.6479
▁under	-11.6479
▁번화가	-11.648
▁몸싸움	-11.648
(26)	-11.648
▁페라로	-11.648
▁실질적으로	-11.648
▁참혹	-11.648
▁연못	-11.648
▁0.5%	-11.648
▁곤경에	-11.648
▁파란색	-11.648
▁하이킹	-11.648
▁휴이트	-11.648
▁혼잡	-11.648
▁독특	-11.648
▁바오로	-11.648
갤론	-11.6481
▁민영	-11.6481
▁want	-11.6481
▁휘말	-11.6481
▁흑자	-11.6481
▁게놈	-11.6481
▁로얄	-11.6481
▁재건축	-11.6481
▁2.13	-11.6481
▁틀림	-11.6481
▁체첸	-11.6481
▁라싸	-11.6481
▁잠비아	-11.6481
▁형벌	-11.6482
▁작별	-11.6482
action	-11.6482
▁넘겼다	-11.6483
▁불빛	-11.6483
▁돌풍	-11.6483
▁내놓았다	-11.6483
▁쉽다	-11.6484
▁정회장	-11.6484
▁뒤이어	-11.6484
▁아시안	-11.6484
▁스테판	-11.6485
▁막으려	-11.6485
▁가정집	-11.6485
▁숨져	-11.6486
▁스몰	-11.6486
▁벤처	-11.6487
▁야외	-11.6488
▁기원전	-11.6489
메모리얼	-11.6489
▁금융기관	-11.6489
▁소방차	-11.6489
▁데이브	-11.6489
▁해리슨	-11.649
▁절단	-11.649
▁법규	-11.649
▁사라질	-11.6491
▁라이더	-11.6492
▁크루	-11.6492
▁만들어졌다	-11.6492
▁법령	-11.6493
▁직무	-11.6493
▁도착하자	-11.6493
▁반란군	-11.6493
▁각료회의	-11.6494
▁들렸다	-11.6494
▁저격	-11.6494
▁꾸미	-11.6495
▁며칠간	-11.6496
▁미시건주	-11.6496
▁예정이지만	-11.6496
▁관여하	-11.6496
▁초드리	-11.6496
▁속출	-11.6498
▁사귀	-11.6498
▁보였으며	-11.6499
▁허브	-11.6499
▁CO	-11.6499
▁개체	-11.6501
▁사과문	-11.6501
▁비틀	-11.6501
▁푸미	-11.6504
▁관제	-11.6505
▁생길	-11.6505
벨라	-11.6507
▁테디	-11.6507
▁형량	-11.6507
▁경감	-11.6508
▁반세기	-11.6508
▁가져오	-11.651
▁PS	-11.651
환자	-11.651
▁쿠즈	-11.6511
▁만연	-11.6514
▁측에서는	-11.6514
▁대통령궁	-11.6515
▁벤치	-11.6516
▁100%	-11.6517
▁들어있다	-11.6519
▁구성원	-11.6521
▁표정	-11.6521
▁구두	-11.6522
1945	-11.6522
▁주장했었다	-11.6526
▁파워	-11.6526
▁손길	-11.6527
▁장애물	-11.6528
Thi	-11.6528
▁친분	-11.6528
▁놓치	-11.6529
심리	-11.6529
▁드러나	-11.6532
▁돌진	-11.6535
ute	-11.6537
▁거행	-11.6537
▁벌인다	-11.6539
▁통과된	-11.6539
▁자원봉사자들	-11.654
▁360	-11.6542
▁작가들	-11.6547
▁날려	-11.6548
▁포즈	-11.655
▁총력	-11.6553
▁서구	-11.6554
▁입원해	-11.6558
▁민족주의	-11.6558
▁카카	-11.6563
▁반경	-11.6564
▁연관성	-11.6565
▁유전적	-11.6565
uck	-11.6566
▁포크	-11.6567
▁리우	-11.6568
▁회복세	-11.657
▁공개될	-11.6572
▁과거사	-11.6573
▁구속력	-11.658
▁어미	-11.658
ton	-11.6582
▁은신	-11.6587
▁들소	-11.6588
▁가담한	-11.6589
▁끝나기	-11.659
war	-11.6593
▁동력	-11.6594
▁우표	-11.6594
▁마루	-11.6594
▁힘들었	-11.6595
▁우수	-11.6596
스프링스	-11.6597
▁연합통신	-11.6599
ony	-11.6604
▁신선	-11.6604
▁촬영된	-11.6605
▁버드	-11.6606
▁책상	-11.6611
▁중립	-11.6612
▁분주	-11.6614
▁한창	-11.6616
dict	-11.6623
All	-11.6624
▁보이지만	-11.6624
비안	-11.6625
▁14%	-11.6625
▁본회의	-11.6626
▁소원	-11.6628
▁등장하	-11.6629
▁당선됐다	-11.6633
▁다르지	-11.6646
▁수송기	-11.6651
▁가야	-11.666
▁몰아내	-11.6661
▁통신원	-11.6664
▁시행되	-11.6664
▁BE	-11.6665
였음	-11.6676
▁실직자	-11.6678
▁진압하기	-11.6682
▁hel	-11.6688
머니	-11.6691
▁보니	-11.6696
▁농부들	-11.6704
▁추방된	-11.6705
side	-11.6706
2007	-11.6708
▁효과적	-11.672
출동한	-11.672
▁원주민들	-11.6724
▁따르지	-11.6732
휘	-11.6751
쿠르	-11.6753
▁주최한	-11.6758
0%	-11.6764
짜	-11.6768
데릭	-11.6768
수익	-11.6769
▁차이나	-11.6772
▁신체적	-11.6777
엠	-11.6783
사무소	-11.6783
낙	-11.6786
톰	-11.6787
매케인	-11.6788
떠	-11.6788
곰	-11.6788
특별	-11.6789
▁동원됐다	-11.6794
재정	-11.68
행동	-11.6804
납치	-11.6804
민주적인	-11.6807
1983	-11.6811
▁바라지	-11.6813
동료	-11.6814
전문가들	-11.6815
메이어	-11.6816
결정	-11.6822
▁심리적	-11.6827
무역	-11.6832
▁존재하지	-11.6832
공연	-11.6836
부적절한	-11.6839
▁이라크인들	-11.6847
▁농부	-11.6857
소속	-11.6863
대원들	-11.6874
▁이어져	-11.6883
▁조심	-11.6897
여건	-11.6907
▁권했다	-11.6917
메스	-11.6917
▁1.6	-11.6924
중단	-11.6931
▁합법적	-11.6934
▁권장	-11.6938
▁싶어하	-11.6939
▁노출된	-11.694
스러워	-11.696
었음	-11.6966
▁7.9	-11.6974
▁소방서	-11.6976
▁주정부	-11.6981
▁Un	-11.6986
▁들어있	-11.6988
dge	-11.6989
▁시달리	-11.7009
ncer	-11.7012
▁계열	-11.7013
tive	-11.7016
점이다	-11.7017
그램	-11.7021
뢰	-11.7022
▁설립했다	-11.7024
▁오르기	-11.703
륜	-11.7032
▁취하기	-11.7032
▁첨단	-11.7034
앵	-11.7034
▁arrest	-11.7034
헝	-11.7034
ISAF	-11.7034
▁Corp	-11.7034
▁RCTV	-11.7034
▁Russia	-11.7034
▁Street	-11.7034
▁가깝게	-11.7034
▁개성공단	-11.7034
▁경기후퇴	-11.7034
▁리트비넨코	-11.7034
▁메르세데스	-11.7034
▁무하마드	-11.7034
▁베를루스코니	-11.7034
▁부패혐의	-11.7034
▁상임이사국	-11.7034
▁새크라멘토	-11.7034
▁샌안토니오	-11.7034
▁선거기부금	-11.7034
▁성매매	-11.7034
▁세골렌	-11.7034
▁심장질환	-11.7034
▁아제르바이잔	-11.7034
▁아프카니스탄	-11.7034
▁안았다	-11.7034
▁애슐리	-11.7034
▁앵커	-11.7034
▁오리건주	-11.7034
▁옮겼다	-11.7034
▁유엔사무총장	-11.7034
▁이어갔다	-11.7034
▁정권인수팀	-11.7034
▁정확하게	-11.7034
▁제너럴	-11.7034
▁좋겠다	-11.7034
▁즈보나레바	-11.7034
▁지켜봤다	-11.7034
▁지켰다	-11.7034
▁찍힌	-11.7034
▁췌장암	-11.7034
▁쿠즈넷소바	-11.7034
▁푸에르타	-11.7034
▁핀란드	-11.7034
▁하드웨어	-11.7034
▁화성탐사	-11.7034
▁히스패닉	-11.7034
시켰으며	-11.7034
엑스파일	-11.7034
캇	-11.7034
커뮤니케이션	-11.7034
키티호크	-11.7034
흠	-11.7034
▁Science	-11.7034
▁forces	-11.7034
▁해안경비대	-11.7034
▁회교도	-11.7034
▁price	-11.7034
▁대니얼	-11.7034
▁로날드	-11.7034
▁메신저	-11.7034
▁컨셉	-11.7034
▁국제축구연맹	-11.7034
▁나타날	-11.7034
▁신생아	-11.7034
▁깁슨	-11.7034
▁대법관	-11.7034
▁승부차기	-11.7034
EPL	-11.7034
▁희귀	-11.7034
▁추기경	-11.7034
▁카펠로	-11.7034
국제올림픽위원회	-11.7035
▁캐롤라인	-11.7035
▁하니야	-11.7035
USGS	-11.7035
UCI	-11.7035
▁게이머	-11.7035
▁아폴로	-11.7035
▁사직서	-11.7035
▁희박	-11.7035
▁동성결혼	-11.7035
▁뉴잉글랜드	-11.7035
▁비너스	-11.7035
▁규탄	-11.7035
▁무자비	-11.7035
▁빙산	-11.7035
▁사형선고	-11.7035
▁괴물	-11.7035
▁좌우	-11.7035
▁아로요	-11.7035
▁그리핀	-11.7035
▁즐겁	-11.7035
습니까	-11.7035
▁묵념	-11.7035
▁적혀있	-11.7035
▁블랙워터	-11.7036
▁빠져나가	-11.7036
▁룰라	-11.7036
▁항구도시	-11.7036
▁바레인	-11.7036
▁에밀리	-11.7036
▁test	-11.7036
▁인내심	-11.7036
▁황폐	-11.7036
▁탈퇴	-11.7036
▁욕구	-11.7036
▁즐겨	-11.7036
▁쿠마르	-11.7036
▁오스만	-11.7036
▁스프레이	-11.7036
▁러브	-11.7037
▁잠자리	-11.7037
▁벌어질	-11.7037
▁드라이브	-11.7037
▁후원자	-11.7038
▁무효	-11.7038
▁쏟아져	-11.7038
▁잠겨	-11.7038
▁옮겨졌다	-11.7039
▁제이슨	-11.7039
▁디젤	-11.7039
▁요구사항	-11.7039
▁묻혀	-11.704
▁꺼내	-11.704
▁최후	-11.7041
▁연봉	-11.7041
▁어윈	-11.7041
▁순결	-11.7041
▁들어올	-11.7041
▁attacks	-11.7042
▁주어지	-11.7042
▁터져	-11.7042
▁모여들었다	-11.7042
▁환급	-11.7043
▁호황	-11.7043
▁그레이스	-11.7043
▁중동평화회의	-11.7043
▁아이다호	-11.7044
▁난항	-11.7044
&#4	-11.7044
해왔으며	-11.7045
▁버리고	-11.7045
▁표범	-11.7045
▁오닐	-11.7046
▁아흐메드	-11.7047
▁빅토	-11.7047
▁의논	-11.7047
▁지하실	-11.7048
▁교도통신	-11.7048
▁루머	-11.7048
▁누출	-11.7048
▁난처	-11.7049
ni	-11.7049
▁JP	-11.705
▁마스크	-11.705
▁무척	-11.7051
▁과속	-11.7052
▁집결	-11.7052
▁항공편	-11.7053
▁밝혀질	-11.7053
▁전인대	-11.7053
▁강철	-11.7053
▁접종	-11.7053
▁카누	-11.7054
▁출산율	-11.7054
▁기대감	-11.7054
Inter	-11.7056
▁종사하	-11.7056
▁소유즈	-11.7056
▁그런데	-11.7057
▁과감	-11.7057
▁탈선	-11.7058
/4	-11.706
-16	-11.706
▁선박들	-11.706
▁않을까	-11.7061
▁가져야	-11.7062
▁타마	-11.7063
▁제왕	-11.7063
▁삼바	-11.7064
▁제약회사	-11.7064
▁이르다	-11.7065
▁다름	-11.7067
▁자체적으로	-11.7067
▁카렌	-11.7068
ship	-11.7069
▁여러차례	-11.707
▁골든	-11.7072
▁자동차업체	-11.7073
▁수익금	-11.7073
▁비스타	-11.7074
▁사립	-11.7074
▁펜실베니아주	-11.7075
▁선교	-11.7075
▁코란	-11.7078
▁고층	-11.708
▁1930	-11.7082
▁알아야	-11.7083
▁들려	-11.7083
▁감당	-11.7083
▁사료	-11.7083
▁제품들	-11.7086
▁부양	-11.7086
▁애정	-11.7088
▁정당화	-11.7089
▁바탕으로	-11.709
▁사용하여	-11.7095
▁운동화	-11.7096
▁친미	-11.7097
▁제작진	-11.7098
▁부의장	-11.7098
▁부국장	-11.71
▁티나	-11.7101
▁벗어나기	-11.7111
▁수십만	-11.7114
▁견디	-11.7116
▁공화당원들	-11.7117
▁지냈다	-11.7117
▁충성	-11.7119
▁위크	-11.7121
▁저하	-11.7123
▁설명하지	-11.7124
▁그럴	-11.7124
▁지질학	-11.7125
▁가루	-11.7125
▁새우	-11.7126
atch	-11.7126
▁이제까지	-11.7127
▁자질	-11.713
▁거주자	-11.7134
▁45%	-11.7135
▁원내	-11.7137
▁확정됐다	-11.7137
▁최다	-11.7142
웃	-11.7142
▁복도	-11.7142
▁예산안	-11.7144
▁계약서	-11.7147
▁측근들	-11.7148
▁수사관들	-11.715
▁의거	-11.7152
▁리마	-11.7156
했거나	-11.7156
▁모색하고	-11.7156
▁정부측	-11.7157
▁기조	-11.7158
former	-11.7167
▁문어	-11.7167
▁스티븐스	-11.7168
▁축하하기	-11.7169
▁노인들	-11.7173
화씨	-11.7178
▁나노	-11.7178
호선	-11.7187
군요	-11.7196
▁적군	-11.7196
▁허가했다	-11.7211
▁사용된다	-11.7212
▁편집장	-11.7219
▁조사관들	-11.7223
▁석유회사	-11.7231
▁물건들	-11.7231
▁인종적	-11.7238
▁병장	-11.7244
▁다양성	-11.7255
▁중단해야	-11.7266
탈루	-11.7279
▁희생됐다	-11.7283
uk	-11.729
▁넘었다	-11.7291
fter	-11.7297
▁생사	-11.7304
▁합류했다	-11.7304
▁대위	-11.731
▁운영되	-11.732
▁자백	-11.7321
연료	-11.7329
▁떠나기	-11.7329
▁적었다	-11.7332
렉스	-11.7332
1974	-11.7336
▁소행이라	-11.7354
▁자백했다	-11.7354
졌으나	-11.7358
꾸	-11.7362
▁교사들	-11.737
폭탄테러	-11.7373
있게	-11.7374
잇	-11.7375
넣	-11.7375
세르비아	-11.7376
캘리포니아	-11.7376
랭킹	-11.7376
힐러리	-11.7376
미사일	-11.7378
아일랜드	-11.7379
미디어	-11.7383
▁Go	-11.7386
자신의	-11.739
▁별장	-11.7394
누구	-11.7399
▁되는데	-11.74
완전	-11.74
노동자	-11.7402
▁분리된	-11.7423
▁같지	-11.7423
▁자국민	-11.7425
석유	-11.7427
판사	-11.7447
▁고통스러	-11.7448
▁생산성	-11.7459
▁일방적	-11.7461
▁있음	-11.7462
▁살아있	-11.7485
시절	-11.7495
▁관람객	-11.7496
▁우주국	-11.7515
회복	-11.7521
ness	-11.7528
▁소매업	-11.7531
▁sur	-11.7536
▁발사됐다	-11.7551
백만명	-11.7556
▁고생	-11.7561
▁대항하는	-11.7579
▁거점	-11.7586
▁준결승	-11.759
화학	-11.759
▁상점들	-11.7602
▁미시건	-11.7604
극적으로	-11.7606
▁브랜	-11.7607
even	-11.7608
셸	-11.7609
▁역설	-11.761
▁주차장	-11.7613
옳	-11.7617
▁바람직	-11.7619
▁당사자	-11.762
▁임원들	-11.762
벳	-11.7622
▁살모넬라	-11.7622
Time	-11.7622
employ	-11.7623
켐	-11.7623
팽	-11.7623
▁KBS	-11.7623
▁claim	-11.7623
▁official	-11.7623
▁people	-11.7623
▁strike	-11.7623
▁summit	-11.7623
▁two	-11.7623
▁̋2007.11	-11.7623
▁걸림돌	-11.7623
▁검정색	-11.7623
▁고르바초프	-11.7623
▁구소련	-11.7623
▁늦추	-11.7623
▁당뇨병	-11.7623
▁독극물	-11.7623
▁르완다	-11.7623
▁리우데자네이루	-11.7623
▁맞이했다	-11.7623
▁메릴린치	-11.7623
▁몰랐다	-11.7623
▁민주노동당	-11.7623
▁바나프샤	-11.7623
▁블래터	-11.7623
▁빈민층	-11.7623
▁서둘러	-11.7623
▁스탤론	-11.7623
▁스필버그	-11.7623
▁아디다스	-11.7623
▁악천후	-11.7623
▁않았었다	-11.7623
▁암스테르담	-11.7623
▁예방접종	-11.7623
▁위태롭게	-11.7623
▁인신매매	-11.7623
▁조류독감	-11.7623
▁칠면조	-11.7623
▁트리폴리	-11.7623
▁헐리우드	-11.7623
▁확립	-11.7623
▁휴전협정	-11.7623
▁흩어져	-11.7623
反	-11.7623
英	-11.7623
뚝	-11.7623
띤	-11.7623
쥬	-11.7623
팻	-11.7623
퐁	-11.7623
2007.02	-11.7623
EADS	-11.7623
break	-11.7623
week	-11.7623
▁마스터즈	-11.7623
▁여중생	-11.7623
▁오래전부터	-11.7623
▁제퍼슨	-11.7623
▁즐거운	-11.7623
▁항공모함	-11.7623
샨	-11.7623
펙	-11.7623
▁영업이익	-11.7623
▁정보통신부	-11.7623
▁쿼터백	-11.7623
▁다이어트	-11.7623
▁불공정	-11.7623
▁에스트라다	-11.7623
▁하토야	-11.7623
▁급성장	-11.7623
▁센트럴	-11.7623
▁낭독	-11.7623
▁오디오	-11.7623
▁존엄성	-11.7623
▁유동성	-11.7623
▁대성당	-11.7623
▁고아원	-11.7623
▁흥정	-11.7623
▁치뤄	-11.7623
▁개구리	-11.7623
▁깁스	-11.7623
▁루카스	-11.7623
▁Polic	-11.7623
▁다둘라	-11.7623
▁산체스	-11.7623
▁강대국	-11.7623
▁조심스럽게	-11.7623
▁차세대	-11.7623
▁징조	-11.7623
(36)	-11.7623
(31)	-11.7623
▁진상조사	-11.7623
▁정착촌	-11.7623
▁경수로	-11.7623
▁인공위성	-11.7623
▁플루	-11.7623
▁특혜	-11.7623
▁다이앤	-11.7623
▁그만두	-11.7623
▁노숙자	-11.7624
▁북아일랜드	-11.7624
▁Burm	-11.7624
▁유가족들	-11.7624
▁카펫	-11.7624
▁도망쳤다	-11.7624
▁클릭	-11.7624
▁진짜	-11.7624
▁통합민주당	-11.7624
▁Press	-11.7624
▁역전승	-11.7624
▁블랙홀	-11.7624
▁기념행사	-11.7624
▁국영언론	-11.7624
▁극도로	-11.7625
▁타계했다	-11.7625
▁출혈	-11.7625
▁사무국장은	-11.7625
▁크리스틴	-11.7625
▁항의시위	-11.7626
▁부유층	-11.7626
▁좁혀	-11.7626
▁체험	-11.7626
▁More	-11.7626
▁십자가	-11.7626
▁헬렌	-11.7626
▁리옹	-11.7626
▁소실	-11.7626
▁총파업	-11.7626
▁식별	-11.7626
▁핵연료	-11.7626
▁군복무	-11.7626
▁로렌	-11.7627
▁출현	-11.7627
▁어워드	-11.7627
▁조세프	-11.7627
▁Ex	-11.7627
▁관례	-11.7627
▁절망	-11.7627
▁크랜	-11.7627
▁무효화	-11.7627
▁몰락	-11.7628
▁로비스트	-11.7628
▁그래함	-11.7628
▁진척	-11.7629
▁인텔	-11.7629
▁양육	-11.763
▁베니스	-11.763
▁이슬람교도들	-11.763
▁카타르	-11.763
▁손잡	-11.763
▁실망감	-11.7631
▁살인사건	-11.7631
▁올라왔다	-11.7631
▁Dis	-11.7631
▁머무르	-11.7632
▁축복	-11.7632
▁통신망	-11.7632
▁소년병	-11.7633
▁평화롭	-11.7634
▁물리학자	-11.7634
▁피켓	-11.7634
▁돌렸다	-11.7635
▁제휴	-11.7635
▁기네스	-11.7636
▁미주리주	-11.7636
▁환경단체	-11.7636
▁넘긴	-11.7637
▁근방	-11.7637
▁표본	-11.7638
▁절정	-11.764
▁의장직	-11.764
▁최장	-11.764
▁일축	-11.7641
▁휘트	-11.7641
▁로렌스	-11.7642
▁상환	-11.7643
▁737	-11.7643
▁강탈	-11.7643
▁보내졌다	-11.7643
▁명절	-11.7644
▁urge	-11.7645
▁재앙	-11.7645
▁고등학생	-11.7645
▁견제	-11.7645
▁망치	-11.7646
▁국무회의	-11.7646
▁오찬	-11.7646
▁구제금융안	-11.7646
▁현저	-11.7647
▁귀중	-11.7649
▁최적	-11.765
▁발령했다	-11.7651
▁SG	-11.7654
▁유타주	-11.7655
레이즈	-11.7656
▁어류	-11.7657
▁진동	-11.7658
▁개통	-11.7658
▁고독	-11.7658
▁조장하	-11.7659
▁마샤	-11.766
▁황소	-11.7661
▁베이비	-11.7662
회사들	-11.7662
bar	-11.7663
▁영하	-11.7663
▁매설	-11.7664
▁불량	-11.7665
▁싶다면	-11.7666
▁진술서	-11.7667
▁임상	-11.7668
▁주의보	-11.7669
▁변호인단	-11.7669
▁구사하	-11.7671
군사훈련	-11.7672
▁소비자들에게	-11.7674
▁희생된	-11.7674
▁관용	-11.7675
▁점유	-11.7675
▁고객들에게	-11.7675
▁지상군	-11.7675
▁북극해	-11.7678
▁정복	-11.7679
▁결선	-11.7681
▁다량	-11.7682
▁압도적으로	-11.7682
▁찾아야	-11.7682
▁세울	-11.7685
▁흔들며	-11.7685
▁부친	-11.7686
▁우리들	-11.7687
▁원형	-11.7688
▁자재	-11.7689
▁아담스	-11.7694
▁왔었다	-11.7697
▁무장조직	-11.77
▁정문	-11.7702
▁구직	-11.7702
▁부탁했다	-11.7707
▁대통령으로서	-11.7707
▁시급	-11.771
▁유지될	-11.7711
▁총리실	-11.772
▁개제	-11.7722
▁반대파	-11.7723
▁집계됐다	-11.7726
▁보잉사	-11.7729
▁경찰관들	-11.773
▁급락했다	-11.7731
행해진	-11.7731
됐음	-11.7731
▁분개	-11.7732
▁양식	-11.7734
▁나포	-11.7735
▁숨어있	-11.7737
▁처사	-11.7738
▁주말까지	-11.7739
▁구조물	-11.7743
▁문화원	-11.7746
▁태워	-11.775
▁에너지부	-11.7761
▁확정된	-11.7762
▁악수	-11.7764
▁차이점	-11.7768
▁work	-11.7777
▁계획이었다	-11.778
▁4500	-11.7788
▁해안지역	-11.7795
▁신청했다	-11.7797
▁통과시키	-11.7802
▁비슷하다	-11.7803
▁원석	-11.7804
▁깨어	-11.7818
▁사망률	-11.7825
other	-11.7828
▁음식점	-11.7829
ju	-11.7835
베르트	-11.784
▁정해진	-11.7849
▁개별	-11.7863
▁참석자들	-11.7867
rop	-11.7876
▁잠들	-11.7878
구조대	-11.7883
▁살아있다	-11.7888
▁cont	-11.7907
▁무너	-11.7915
▁정보통	-11.7915
USS	-11.7919
▁혁신적	-11.7924
▁작위	-11.793
▁게르	-11.7942
▁체포됐	-11.7948
▁붕괴되	-11.795
끈	-11.795
라이스	-11.7953
▁1,2	-11.7956
tar	-11.7958
▁사라져	-11.7969
담당자	-11.7972
▁신자들	-11.798
칩	-11.7997
드립니다	-11.7998
CEO	-11.8
아프가니스탄	-11.8
깊	-11.8
콜롬비아	-11.8001
심각한	-11.8001
민주주의	-11.8003
▁생겼	-11.8003
충격	-11.8004
결혼	-11.8005
그리고	-11.8006
어머니	-11.801
득점	-11.8014
바라크	-11.8015
버락	-11.8023
▁보이기	-11.8024
전세계	-11.8028
코리아	-11.8033
특히	-11.8035
uni	-11.8035
▁MP	-11.8047
▁라벨	-11.8049
▁0.7	-11.8077
▁집행위원	-11.8079
▁강타했다	-11.8083
바락	-11.8089
▁내역	-11.81
▁급증했다	-11.8109
▁촉진시키	-11.8128
net	-11.8128
매장	-11.8134
모건	-11.8138
▁연구자들	-11.8144
불안	-11.8147
▁자동차회사	-11.8148
▁정신병	-11.8156
NT	-11.8164
▁작동되	-11.8167
▁수사팀	-11.8168
▁자리잡	-11.8178
▁빠졌	-11.8179
▁거래되	-11.8181
ina	-11.8198
즉각적으로	-11.8202
▁거뒀	-11.8213
▁극단주의	-11.8219
▁메디컬	-11.822
ism	-11.8234
▁냉각	-11.8238
▁지불했다	-11.8238
섯	-11.8242
콧	-11.8245
콕	-11.8245
▁불러일으	-11.8246
▁숙박	-11.8247
eneral	-11.8248
놔	-11.8248
긍	-11.8248
뚜	-11.8248
▁Administration	-11.8248
▁Health	-11.8248
▁Securit	-11.8248
▁Senate	-11.8248
▁Week	-11.8248
▁chief	-11.8248
▁demand	-11.8248
▁economic	-11.8248
▁건강검진	-11.8248
▁공상과학	-11.8248
▁기울여야	-11.8248
▁깨달았다	-11.8248
▁남동생	-11.8248
▁뇌졸중	-11.8248
▁떠올랐다	-11.8248
▁리투아니아	-11.8248
▁멜버른	-11.8248
▁물러났다	-11.8248
▁바랐다	-11.8248
▁볼티모어	-11.8248
▁불균형	-11.8248
▁불러일으켰다	-11.8248
▁블록버스터	-11.8248
▁스틸러스	-11.8248
▁시에라리온	-11.8248
▁식품의약국	-11.8248
▁언젠가	-11.8248
▁옥스포드	-11.8248
▁옵션	-11.8248
▁이바노비치	-11.8248
▁재결합	-11.8248
▁준이치로	-11.8248
▁찾으려	-11.8248
▁츠방기라이	-11.8248
▁트러스트	-11.8248
▁평화협정	-11.8248
▁프랑크푸르트	-11.8248
▁플레이스테이션	-11.8248
▁휠체어	-11.8248
늑	-11.8248
랏	-11.8248
스러웠다	-11.8248
윅	-11.8248
팡	-11.8248
퍼레이션	-11.8248
UNHCR	-11.8248
▁200809.0	-11.8248
▁ABN	-11.8248
▁나미비아	-11.8248
▁놀이공원	-11.8248
▁볼드윈	-11.8248
▁부총재	-11.8248
▁비아그라	-11.8248
▁자페타	-11.8248
▁퀘벡	-11.8248
市	-11.8248
쑤	-11.8248
▁내보냈다	-11.8248
▁모레스모	-11.8248
▁부동층	-11.8248
▁스즈키	-11.8248
▁카르발라	-11.8248
▁햇빛	-11.8248
▁남겨두고	-11.8248
텀	-11.8248
HDA	-11.8248
▁tax	-11.8248
▁구속영장	-11.8248
▁노던록	-11.8248
▁탄원서	-11.8248
▁흡입	-11.8248
▁전자메일	-11.8248
▁헬만드	-11.8248
▁타디치	-11.8248
▁상무부	-11.8248
▁사무차장	-11.8248
▁인수제안	-11.8248
▁산악지대	-11.8248
▁스콜스	-11.8248
▁원동력	-11.8248
▁침착하	-11.8248
▁중질유	-11.8248
▁서두르	-11.8248
▁사로잡	-11.8248
▁trans	-11.8248
▁버나드	-11.8248
▁산시성	-11.8248
▁컬럼비아호	-11.8248
▁포브스	-11.8248
▁로드아일랜드	-11.8248
▁수수료	-11.8248
▁엘리엇	-11.8248
▁때때로	-11.8248
▁자위대	-11.8248
▁해들리	-11.8248
▁trial	-11.8248
▁그려진	-11.8248
▁다저스	-11.8248
▁있으므로	-11.8248
▁프린트	-11.8248
▁이스마일	-11.8248
▁패트로스	-11.8248
시드르	-11.8248
▁궁극적으로	-11.8248
▁액체	-11.8248
▁축구팬들	-11.8248
▁희미	-11.8248
▁검역	-11.8248
▁슬픈	-11.8248
으므로	-11.8249
▁작가조합	-11.8249
▁노동조합	-11.8249
▁압델	-11.8249
▁집중적	-11.8249
▁Medic	-11.8249
▁레빈슨	-11.8249
▁벗겨	-11.8249
▁six	-11.8249
▁놓여있다	-11.8249
▁국가안보회의	-11.8249
▁Park	-11.8249
▁철폐	-11.8249
▁추산되	-11.8249
▁현대자동차	-11.825
▁주변국들	-11.825
▁언니	-11.825
▁부활절	-11.825
▁유대교	-11.8251
▁soldiers	-11.8251
▁당직자	-11.8251
▁있냐	-11.8251
▁신흥	-11.8252
▁예상됩니다	-11.8252
▁출처	-11.8252
▁집값	-11.8253
▁우주여행	-11.8253
▁찾아냈다	-11.8253
▁계승	-11.8253
▁스튜	-11.8253
▁생애	-11.8254
▁키팅	-11.8254
▁랜디	-11.8254
▁헤엄	-11.8254
▁당사자들	-11.8254
▁유명인사들	-11.8254
▁청원서	-11.8254
▁나눈	-11.8254
▁차량폭탄	-11.8254
▁1.5%	-11.8256
▁생물체	-11.8256
▁도발적	-11.8256
▁신기록	-11.8256
▁알라위	-11.8256
▁공헌	-11.8256
▁법무상	-11.8256
ww	-11.8256
▁불법행위	-11.8257
▁장례	-11.8257
▁내륙	-11.8257
▁합쳐	-11.8257
▁흔들었다	-11.8257
▁자동차산업	-11.8258
첸코	-11.8258
▁1967	-11.8258
▁찰리	-11.8258
▁관통	-11.8259
▁오웬	-11.8259
▁완구	-11.8259
▁생생	-11.826
▁야채	-11.826
▁지명되기	-11.8261
▁레빈	-11.8262
▁종목	-11.8262
▁코웰	-11.8262
▁폭도들	-11.8262
▁폴락	-11.8263
▁그레그	-11.8263
▁Air	-11.8263
▁증파	-11.8263
▁골절	-11.8264
노브	-11.8265
▁용감	-11.8265
▁단결	-11.8265
▁자폭	-11.8266
▁흉내	-11.8266
▁사무국	-11.8269
▁돌아보	-11.8269
▁바꾼	-11.8269
▁아델	-11.827
▁거론하	-11.827
▁청산	-11.827
▁루이지애나주	-11.8271
▁찾아온	-11.8271
GDP	-11.8271
▁무력화	-11.8272
▁팬더	-11.8272
▁왕관	-11.8273
▁진심	-11.8275
▁게시물	-11.8275
▁위함	-11.8275
▁풀려나	-11.8276
▁단편	-11.8276
▁강조하며	-11.8278
▁줄리아	-11.8278
▁브라이언트	-11.8279
짐에따라	-11.8279
▁통제권	-11.8282
▁간주되	-11.8282
▁유로화	-11.8283
▁배출량	-11.8284
▁애리조나주	-11.8285
▁돌파구	-11.8286
▁격전	-11.8287
▁발판	-11.8288
▁루터	-11.8289
▁맺어	-11.8291
▁청년들	-11.8291
▁증대	-11.8292
▁사라졌	-11.8293
▁해골	-11.8295
▁도출	-11.8295
▁천국	-11.8295
▁타워	-11.8295
▁과오	-11.8296
▁중요하게	-11.8296
▁합의에따라	-11.83
▁가속	-11.8301
▁유학	-11.8305
▁실업자	-11.8309
ui	-11.8309
▁이송됐으	-11.831
▁궁전	-11.8311
▁바다위	-11.8311
▁생산업체	-11.8314
▁추억	-11.8315
▁말해주	-11.8315
▁헌법상	-11.8315
▁살레	-11.8315
▁깨진	-11.8317
▁파란	-11.8317
▁난관	-11.8317
▁기자실	-11.8318
▁거울	-11.8318
▁모방	-11.8318
▁늘었다	-11.8322
▁무거	-11.8325
▁11%	-11.8326
▁목성	-11.8326
▁어조	-11.833
▁등장한다	-11.8331
▁유실	-11.8332
PR	-11.8333
▁내외	-11.8335
▁박탈당	-11.8335
▁경미	-11.8338
▁특성	-11.8339
▁주범	-11.8344
▁중단시켰다	-11.8345
투성이	-11.8352
▁실망했다	-11.8352
▁요리사	-11.8357
▁친부	-11.8363
작품	-11.8365
▁인내	-11.837
cal	-11.837
▁동점	-11.8385
▁관람객들	-11.8386
▁조각들	-11.8388
▁독자적	-11.8391
▁지방정부	-11.8396
▁위력	-11.8397
▁베드	-11.8412
▁하나였다	-11.8412
than	-11.8412
▁해당한다	-11.8415
long	-11.8416
ron	-11.8417
▁장갑	-11.8418
▁밝혀져	-11.8418
프로스트	-11.842
rel	-11.8424
▁받아들이기	-11.8426
오카	-11.8434
▁부대변인	-11.8449
orn	-11.8457
ift	-11.8459
▁축출된	-11.8462
▁의사회	-11.8463
bur	-11.8474
▁이루어졌	-11.8477
헌재	-11.8492
pose	-11.8495
▁관중들	-11.85
▁대행	-11.851
▁수출국	-11.8512
태국	-11.8517
▁블로거	-11.852
▁출동했다	-11.8535
브론	-11.8551
▁간주하	-11.8558
글래	-11.8568
cial	-11.8569
EL	-11.8591
금치	-11.8592
▁목장	-11.8593
▁무장세력들	-11.8595
심장	-11.8595
▁확산됐다	-11.8598
▁천장	-11.8598
▁극복하	-11.8644
▁사유	-11.8646
못	-11.8661
듀	-11.8663
OPEC	-11.8664
PKK	-11.8665
흔	-11.8666
▁이재민들	-11.8666
홈	-11.8666
따라서	-11.8666
2009.01	-11.8666
여객기	-11.8667
워싱턴	-11.8667
레바논	-11.8667
사르코지	-11.8668
데일리	-11.8668
베컴	-11.867
여러분	-11.8673
▁임명됐다	-11.8674
ft	-11.8679
등록	-11.8682
▁파괴되	-11.869
워졌다	-11.8695
운송	-11.8712
하락	-11.8712
▁소녀들	-11.8714
예산	-11.8717
혁	-11.8723
방문	-11.8724
▁존재한다	-11.8734
집회	-11.8737
▁삼아	-11.8754
We	-11.8757
▁인도주의	-11.8777
프레드	-11.878
985	-11.8804
▁티모	-11.8816
▁알려왔	-11.8818
▁경찰국장	-11.883
▁지원자들	-11.8836
▁저질렀	-11.884
▁신씨	-11.8843
▁태우	-11.8843
▁스타디움	-11.8847
퍼트	-11.8852
▁통상적	-11.8865
▁같아	-11.8878
▁싶었	-11.8879
▁달링	-11.8882
ology	-11.8903
illion	-11.8906
▁제공되	-11.891
둬	-11.8911
ough	-11.8911
▁콜롬	-11.8911
▁kill	-11.8912
▁로빈	-11.8914
갓	-11.8914
▁파키스탄인민당	-11.8914
퀘	-11.8914
▁California	-11.8914
▁Thai	-11.8914
세컨드라이프	-11.8914
6,000	-11.8914
ING	-11.8914
People	-11.8914
▁2007~2008	-11.8914
▁DAX	-11.8914
▁France	-11.8914
▁IRNA	-11.8914
▁Iran	-11.8914
▁NHC	-11.8914
▁Research	-11.8914
▁Work	-11.8914
▁candidate	-11.8914
▁group	-11.8914
▁grow	-11.8914
▁굉장히	-11.8914
▁국가평의회	-11.8914
▁끊겼	-11.8914
▁냉장고	-11.8914
▁다비덴코	-11.8914
▁대검찰청	-11.8914
▁래드클리프	-11.8914
▁부드러운	-11.8914
▁사이언톨로지	-11.8914
▁아르메니아	-11.8914
▁애틀랜틱	-11.8914
▁전비법안	-11.8914
▁출퇴근	-11.8914
▁칼데론	-11.8914
▁타임스퀘어	-11.8914
▁티크리트	-11.8914
▁프랑수아	-11.8914
▁하르툼	-11.8914
▁혹등고래	-11.8914
북대서양조약기구	-11.8914
Black	-11.8914
▁market	-11.8914
▁구제금융법안	-11.8914
▁루고보이	-11.8914
▁매몰된	-11.8914
▁멤피스	-11.8914
▁무기징역	-11.8914
▁버킹엄	-11.8914
▁볼리비아	-11.8914
▁슈퍼마켓	-11.8914
▁애완용	-11.8914
▁포유류	-11.8914
쟈	-11.8914
▁High	-11.8914
▁국제영화제	-11.8914
▁니제르	-11.8914
▁대배심	-11.8914
엉	-11.8914
▁즐긴다	-11.8914
▁파딜라	-11.8914
타이타닉	-11.8914
▁home	-11.8914
▁여기저기	-11.8914
▁메이도프	-11.8914
▁섭씨	-11.8914
▁트레일러	-11.8914
▁핵폐기	-11.8914
▁아메바	-11.8914
▁1972	-11.8914
▁바이에른	-11.8914
▁재경부	-11.8914
▁제레미	-11.8914
▁금리인하	-11.8914
▁리브니	-11.8914
▁메케인	-11.8914
스타워즈	-11.8914
▁모으고	-11.8914
▁파라오	-11.8915
슬라브	-11.8915
▁올림피	-11.8915
▁버크헤드	-11.8915
하였는데	-11.8915
▁FAA	-11.8915
▁불가사의	-11.8915
솔직히	-11.8915
▁사진작가	-11.8915
▁말리부	-11.8915
(41)	-11.8915
▁무언가	-11.8915
▁뛰어넘	-11.8915
(37)	-11.8915
▁어쩔	-11.8915
▁바시르	-11.8915
rug	-11.8915
▁소비에트	-11.8915
도날드	-11.8915
(22)	-11.8915
▁플린	-11.8915
house	-11.8915
▁화학물질	-11.8915
▁알라스카	-11.8915
▁비정상적	-11.8915
▁show	-11.8915
▁미뤄	-11.8916
▁용도로	-11.8916
▁군사행동	-11.8916
▁메인주	-11.8916
▁마스리	-11.8916
쿼터	-11.8916
▁CAC	-11.8916
▁1,500	-11.8917
▁남태평양	-11.8917
▁killed	-11.8917
▁베이징올림픽	-11.8917
(30)	-11.8917
▁봉투	-11.8917
▁부모님	-11.8917
▁동아시아	-11.8917
rough	-11.8917
▁로리언	-11.8917
▁십먼	-11.8917
▁옳은	-11.8918
▁불륜	-11.8918
▁피난처	-11.8918
▁부정행위	-11.8918
▁홈경기	-11.8918
▁복음	-11.8918
▁비밀요원	-11.8918
▁포털	-11.8918
▁로지스	-11.8918
▁4.5%	-11.8918
▁날카로	-11.8919
▁콜롬보	-11.8919
▁놀라움	-11.8919
▁우발적	-11.8919
▁입후보	-11.8919
▁XP	-11.8919
▁스노우	-11.892
▁멜론	-11.892
▁비웃	-11.892
▁푸른	-11.892
▁해산시키기	-11.8921
기동대	-11.8921
▁일기장	-11.8921
▁정몽	-11.8921
▁누구인지	-11.8922
▁범죄행위	-11.8922
▁hit	-11.8922
▁빈센트	-11.8922
층짜리	-11.8922
▁축구스타	-11.8922
▁근절	-11.8923
▁계급	-11.8923
▁자치권	-11.8923
▁에베레스트산	-11.8923
▁하렐	-11.8923
▁기관총	-11.8923
▁아프리카연합	-11.8923
▁엔론	-11.8924
▁인권문제	-11.8924
▁놀란	-11.8925
▁최신작	-11.8925
had	-11.8925
▁형편	-11.8925
▁태생	-11.8925
▁교각	-11.8926
▁운용	-11.8926
▁도로변	-11.8926
▁폭발사고	-11.8926
▁야망	-11.8927
▁대국민	-11.8927
▁난입	-11.8927
▁고심하	-11.8928
▁절실	-11.8928
▁만평	-11.8928
▁set	-11.8928
▁우편물	-11.8928
▁보스톤	-11.8928
▁즉석	-11.8928
▁로빈슨	-11.8929
▁거론되	-11.893
▁번복	-11.893
▁선례	-11.893
▁공공연	-11.893
▁국회의장	-11.8931
▁경합	-11.8931
▁평온	-11.8932
▁은둔	-11.8933
val	-11.8934
▁설전	-11.8934
▁용납하지	-11.8935
▁2018	-11.8936
▁들어설	-11.8936
▁버몬트주	-11.8936
▁할렘	-11.8937
▁상향	-11.8937
▁담요	-11.8938
▁설비	-11.8939
▁역설했다	-11.8939
▁과연	-11.8941
▁악마	-11.8942
되었는지	-11.8943
▁난방	-11.8943
▁가장자리	-11.8945
▁생계	-11.8945
▁매료	-11.8946
▁건축물	-11.8946
▁연합정부	-11.8946
▁휴전선	-11.8946
▁위독	-11.8947
▁왕조	-11.8948
▁포탄	-11.8948
▁대피시켰다	-11.8949
rious	-11.895
▁경계선	-11.895
▁싶었다	-11.895
▁마술	-11.8951
▁선호하	-11.8952
▁아프간군	-11.8953
▁결단	-11.8954
통합	-11.8954
▁요구했었다	-11.8954
▁속력	-11.8957
▁부주의	-11.8958
▁궁지에	-11.8958
▁0.5	-11.8959
▁음료수	-11.8959
▁엄청나	-11.896
▁아샤	-11.8962
▁불확실성	-11.8963
▁유영	-11.8964
▁부분적으로	-11.8964
▁시립	-11.8965
ween	-11.8969
▁소방당국	-11.8971
실질적	-11.8977
▁소포	-11.8979
정규직	-11.898
▁블루스	-11.8983
▁꺼리	-11.8984
▁거머쥐었	-11.8986
▁소실됐다	-11.8986
▁토레스	-11.899
▁군사위원회	-11.8991
▁보험회사	-11.8996
▁펼쳐진	-11.8999
▁입안	-11.9004
▁설사	-11.9005
▁교장	-11.9008
DP	-11.9012
▁국세청장	-11.9012
VS	-11.9019
▁사업체	-11.9024
▁피난민	-11.9028
클래	-11.9029
학술	-11.9029
▁나누어	-11.9031
▁주의회	-11.9033
▁보건장관	-11.9038
▁방영되	-11.9044
▁기술자들	-11.9059
▁동의안	-11.9059
▁구성원들	-11.9063
▁공금	-11.9065
DH	-11.9068
▁감사원	-11.9072
▁향상시키	-11.908
▁끝나면	-11.908
over	-11.9085
▁경쟁자들	-11.9087
▁안정화	-11.9091
겠는가	-11.9093
▁군사정부	-11.9094
▁휴회	-11.9096
▁존재하	-11.9138
셰르	-11.9146
▁유사하다	-11.9167
광장	-11.9169
▁활동가들	-11.9171
▁남북간	-11.9182
▁수감돼	-11.9187
▁던졌	-11.9189
교통	-11.919
▁관점	-11.9199
강국	-11.9224
▁베티	-11.9249
▁장악했다	-11.9261
범들	-11.9261
어지면서	-11.9267
줬으	-11.9293
김양	-11.9312
▁구매자들	-11.932
Tri	-11.9343
▁전사자	-11.9343
맹	-11.9359
ham	-11.936
봐	-11.9373
끄	-11.9378
슛	-11.9379
템	-11.9379
몸	-11.938
숨	-11.938
코소보	-11.9381
녹	-11.9382
라디오	-11.9382
첫	-11.9382
바이러스	-11.9383
오프라	-11.9388
▁거기에	-11.9388
위험	-11.9395
트럭	-11.9398
사우디	-11.9401
▁싶어하지	-11.9405
남편	-11.9405
▁힘들어	-11.9407
ble	-11.9422
▁각료들	-11.9425
~200	-11.9434
▁약화시키	-11.9452
▁야마	-11.946
▁인류학	-11.9465
심슨	-11.9482
▁팔린	-11.9487
▁제압하	-11.9496
▁미성년	-11.9507
무차관	-11.951
▁천문학	-11.9544
▁제조업자	-11.9551
▁청장	-11.9555
블러	-11.9569
▁떨어뜨	-11.9569
1977	-11.957
▁Sup	-11.9584
▁개최국	-11.9602
▁패트	-11.9611
▁6.8	-11.9617
거래소에서	-11.9618
자와히리	-11.9623
쿼	-11.9626
덱	-11.9628
탬	-11.9629
뜰	-11.9629
▁Society	-11.9629
▁threaten	-11.9629
▁나스랄라	-11.9629
▁남우주연상	-11.9629
▁신시내티	-11.9629
▁아쿠아리움	-11.9629
▁에메랄드	-11.9629
▁카메룬	-11.9629
껴	-11.9629
뚱	-11.9629
펠릭스	-11.9629
훌	-11.9629
(57)	-11.9629
Academy	-11.9629
NDO	-11.9629
SNCF	-11.9629
lobal	-11.9629
▁Control	-11.9629
▁Rights	-11.9629
▁economy	-11.9629
▁problem	-11.9629
▁return	-11.9629
▁securit	-11.9629
▁support	-11.9629
▁withdraw	-11.9629
▁공동기자회견에	-11.9629
▁국가대표팀	-11.9629
▁네브라스카	-11.9629
▁뉴욕타임즈	-11.9629
▁다녔다	-11.9629
▁담았다	-11.9629
▁대기오염	-11.9629
▁대선예비후보	-11.9629
▁더글라스	-11.9629
▁디카프리오	-11.9629
▁따돌렸다	-11.9629
▁만토바니	-11.9629
▁맛봤다	-11.9629
▁머물렀다	-11.9629
▁믿어지	-11.9629
▁바예스테로스	-11.9629
▁박스오피스	-11.9629
▁발렌시아	-11.9629
▁벗어났다	-11.9629
▁분리독립	-11.9629
▁사우스다코타	-11.9629
▁시니오라	-11.9629
▁아름답	-11.9629
▁아리조나	-11.9629
▁와코비아	-11.9629
▁워싱턴포스트	-11.9629
▁잉그리드	-11.9629
▁최연소	-11.9629
▁카스파로프	-11.9629
▁크라이튼	-11.9629
▁홀로코스트	-11.9629
눕	-11.9629
뭘	-11.9629
샵	-11.9629
샹	-11.9629
쿡	-11.9629
퉁	-11.9629
▁견뎌	-11.9629
▁공청회	-11.9629
▁독립선언	-11.9629
▁라말라	-11.9629
▁미식축구	-11.9629
▁배트맨	-11.9629
▁옥수수	-11.9629
갑작스럽게	-11.9629
멕	-11.9629
애국전선	-11.9629
▁쓰러진	-11.9629
어느때보다	-11.9629
▁우체국	-11.9629
▁전두환	-11.9629
▁패터슨	-11.9629
▁비무장지대	-11.9629
▁산티아고	-11.9629
▁은하계	-11.9629
▁허덕이	-11.9629
▁놀이기구	-11.9629
▁분화구	-11.9629
▁알메이다	-11.9629
▁퇴근	-11.9629
▁사이언스	-11.9629
▁마피아	-11.9629
▁어둡	-11.9629
▁돌려보내	-11.9629
RBS	-11.9629
AIDS	-11.9629
▁보너스	-11.9629
▁성범죄자	-11.9629
▁세르게이	-11.9629
▁도서관	-11.9629
▁퇴출	-11.9629
▁삼성전자	-11.9629
▁세비르	-11.9629
▁아침식사	-11.9629
▁국가안보보좌관	-11.9629
uff	-11.9629
외할머니	-11.9629
▁제국주의	-11.9629
▁인공심장	-11.9629
▁종지부	-11.9629
(61)	-11.9629
▁[[	-11.9629
▁떠다니	-11.9629
▁결론지었다	-11.9629
▁추도식	-11.9629
(38)	-11.9629
▁씨앗	-11.9629
▁민주변화운동	-11.9629
▁트레이시	-11.9629
▁어쩌	-11.9629
▁크로포드	-11.9629
다빈치	-11.9629
▁버핏	-11.9629
▁헐값	-11.9629
▁리프트	-11.9629
▁종합병원	-11.9629
(52)	-11.9629
▁와일드	-11.9629
▁현명한	-11.9629
▁켄트	-11.9629
▁홍보담당자	-11.9629
▁빠져나갔다	-11.9629
▁Union	-11.9629
▁김일성	-11.963
▁업종	-11.963
갤런	-11.963
▁탐지기	-11.963
▁어둠	-11.963
▁선거인단	-11.963
▁재가동	-11.963
▁탈옥	-11.963
▁구급차	-11.963
▁불상사	-11.963
▁천수이	-11.963
▁평의회	-11.963
▁출몰	-11.963
▁온몸	-11.963
▁회생	-11.963
▁사육사들	-11.963
(19)	-11.963
▁낫다	-11.963
(40)	-11.963
했었지만	-11.963
▁출근	-11.9631
▁패션쇼	-11.9631
▁아름다움	-11.9631
▁건강보험	-11.9631
▁who	-11.9631
▁겨누	-11.9631
(20)	-11.9631
▁주모자	-11.9631
▁올라간다	-11.9631
▁갈망하	-11.9632
▁틸리	-11.9632
▁교훈	-11.9632
▁고의적으로	-11.9632
▁디즈니랜드	-11.9632
▁수감생활	-11.9632
▁베풀	-11.9632
▁약물검사	-11.9632
▁사형제도	-11.9633
sex	-11.9633
▁봉급	-11.9633
▁있었는데	-11.9633
▁그래미	-11.9633
바레드	-11.9633
▁잠정적	-11.9634
▁도미니	-11.9634
2008.01	-11.9634
▁cut	-11.9634
▁검은색	-11.9634
▁압류	-11.9634
▁노골적	-11.9634
▁별칭	-11.9634
▁청취	-11.9634
할로윈	-11.9635
▁City	-11.9635
▁휴먼	-11.9635
▁갑작스러	-11.9635
▁드럼	-11.9635
▁유명해졌다	-11.9635
▁채굴	-11.9635
▁만들어낸	-11.9635
▁숙박비	-11.9636
▁페드로	-11.9636
▁완강	-11.9636
▁MTV	-11.9636
▁머독	-11.9636
플랜	-11.9636
▁감기약	-11.9636
▁대리모	-11.9636
▁뉴먼	-11.9636
▁잃었으며	-11.9636
▁사망원인	-11.9636
AMA	-11.9637
▁마샬	-11.9637
▁가져온	-11.9638
▁필사적	-11.9638
▁축구협회	-11.9638
▁환경운동	-11.9638
▁편견	-11.9638
▁잠입	-11.9638
▁터졌다	-11.9639
▁암살사건	-11.9639
▁떨어지면서	-11.9639
▁월급	-11.9639
▁years	-11.9639
▁애견	-11.964
IJ	-11.964
▁축구선수	-11.964
▁샤리아	-11.964
▁케이티	-11.964
▁deal	-11.9641
▁담합	-11.9641
reme	-11.9641
▁처방전	-11.9641
▁Iraqi	-11.9641
▁주택시장	-11.9642
▁화산재	-11.9642
▁bill	-11.9642
▁홀더	-11.9642
▁소도시	-11.9643
▁합작	-11.9643
▁자궁	-11.9643
▁과열	-11.9643
▁듀크	-11.9644
▁칭하며	-11.9645
▁정치활동	-11.9645
▁스토리	-11.9647
▁투자은행	-11.9647
▁USB	-11.9647
▁에릭슨	-11.965
▁표출	-11.965
▁구슬	-11.965
▁축적	-11.965
▁독려	-11.9651
▁오델	-11.9651
▁양빈	-11.9651
▁플래시	-11.9651
▁학계	-11.9652
▁인출	-11.9653
▁로케	-11.9654
▁자율	-11.9655
▁친지들	-11.9655
▁종교단체	-11.9656
▁응용	-11.9656
▁생체	-11.9656
▁반테러	-11.9657
▁얻어야	-11.9657
▁카나리	-11.9657
▁성취	-11.9657
▁혼자서	-11.9658
▁없어질	-11.9658
▁신랑	-11.9659
▁2.0	-11.966
▁간격	-11.966
▁2015	-11.9661
▁거칠	-11.9662
부총리	-11.9662
▁보장받	-11.9662
▁천체	-11.9663
▁어두	-11.9664
▁청원	-11.9664
~9	-11.9665
프로축구	-11.9665
▁돌발	-11.9665
▁않음	-11.9665
▁변종	-11.9667
ating	-11.9668
쥐스틴	-11.9668
▁칼리드	-11.967
▁이민국	-11.9671
▁교신	-11.9672
▁실천	-11.9675
▁위스콘신주	-11.9678
▁보수주의자들	-11.9678
▁투명성	-11.9679
트루먼	-11.9685
▁근본주의자들	-11.9689
▁끝내기	-11.969
▁용량	-11.9693
▁소비량	-11.9717
▁주연상	-11.9718
▁도와준	-11.9718
▁임시정부	-11.9719
▁달아나	-11.9725
▁관장	-11.9729
▁월터스	-11.9733
emi	-11.9733
▁상무위원	-11.9734
dom	-11.9738
ray	-11.974
▁office	-11.9749
▁호건	-11.9751
▁연결하	-11.9756
1191	-11.9766
▁납치됐	-11.9768
▁충분하다	-11.9768
▁통과시킨	-11.9771
▁거주지역	-11.9771
Big	-11.9773
부르크	-11.9791
개인적	-11.9827
▁산업지수	-11.983
▁우위	-11.9836
유니티	-11.986
▁농성	-11.9871
▁사죄	-11.9876
▁부적절	-11.9888
▁교수들	-11.9892
▁프라하	-11.9894
▁감정적	-11.99
▁소방대원들	-11.9903
▁초고속	-11.9927
하냐	-11.9927
KO	-11.9936
▁요인들	-11.995
HP	-11.9951
▁인권단체들	-11.9957
▁2008.12.1	-11.9959
▁스키장	-11.9995
973	-12.0003
라이츠	-12.0032
WB	-12.0063
▁cl	-12.0092
볼트	-12.0097
▁주최하	-12.0103
▁중단하겠다	-12.0105
▁탈북자들	-12.0117
쉐	-12.0146
APEC	-12.0147
굿	-12.0147
샘	-12.0147
기상청	-12.0149
싸움	-12.015
꿈	-12.015
누군가	-12.015
박물관	-12.0151
앨범	-12.0151
백악관	-12.0151
마지막	-12.0151
마이클	-12.0152
사망자	-12.0153
테니스	-12.0154
경쟁	-12.0156
실험	-12.0158
리서치	-12.0158
night	-12.0167
▁0.4	-12.0171
▁경영자들	-12.0177
ater	-12.0205
▁lead	-12.0227
▁받으면	-12.0248
tter	-12.0254
Car	-12.0255
▁나와있	-12.0282
▁공직자	-12.0296
▁알프레	-12.0308
평했다	-12.0315
▁회사측	-12.0319
unda	-12.034
▁작용하	-12.036
▁드러냈	-12.0371
▁글로리	-12.0375
▁검시	-12.0379
▁year	-12.0387
▁디스커버리	-12.0394
듭	-12.0395
스피어	-12.0397
▁경기부양	-12.0397
▁솔로몬	-12.0398
Space	-12.0398
오피니언	-12.0398
팰	-12.0398
▁유럽중앙은행	-12.0398
▁보궐선거	-12.0398
▁파라마운트	-12.0398
性	-12.0398
Defense	-12.0398
Europe	-12.0398
▁Agency	-12.0398
▁Group	-12.0398
▁Israel	-12.0398
▁Microsoft	-12.0398
▁NHK	-12.0398
▁Washington	-12.0398
▁sanction	-12.0398
▁가깝다	-12.0398
▁고혈압	-12.0398
▁굉장한	-12.0398
▁노스다코타	-12.0398
▁듀프레	-12.0398
▁루프트한자	-12.0398
▁맨하탄	-12.0398
▁밀워키	-12.0398
▁발렌타인	-12.0398
▁백과사전	-12.0398
▁북방한계선	-12.0398
▁브래들리	-12.0398
▁사파테로	-12.0398
▁산업자원부	-12.0398
▁서부텍사스산	-12.0398
▁스펙터	-12.0398
▁아틀레티코	-12.0398
▁알레르기	-12.0398
▁알츠하이머	-12.0398
▁엔터프라이즈	-12.0398
▁연방준비은행	-12.0398
▁월경작전	-12.0398
▁이슬라미야	-12.0398
▁인수합병	-12.0398
▁조기총선	-12.0398
▁족자카르타	-12.0398
▁쫓아내	-12.0398
▁캄푸쉬	-12.0398
▁컨소시엄	-12.0398
▁코리아타임즈	-12.0398
▁코뿔소	-12.0398
▁코펜하겐	-12.0398
▁클랩튼	-12.0398
▁클리브랜드	-12.0398
▁타바스코	-12.0398
▁통합러시아당	-12.0398
▁트럼프	-12.0398
▁폴란스키	-12.0398
▁해밀턴	-12.0398
▁해수욕장	-12.0398
▁행정명령	-12.0398
▁확고히	-12.0398
▁휘두르	-12.0398
故	-12.0398
간담회에서	-12.0398
뎀	-12.0398
드림라이너	-12.0398
샴	-12.0398
샷	-12.0398
슬로바키아	-12.0398
씬	-12.0398
쥔	-12.0398
쪼	-12.0398
챈	-12.0398
캐시미르	-12.0398
퍽	-12.0398
John	-12.0398
place	-12.0398
▁Commission	-12.0398
▁capital	-12.0398
▁missile	-12.0398
▁system	-12.0398
▁광저우	-12.0398
▁나뭇가지	-12.0398
▁스머프	-12.0398
▁시트콤	-12.0398
▁울프위츠	-12.0398
▁천안문	-12.0398
륨	-12.0398
싹	-12.0398
Earth	-12.0398
▁대북제재	-12.0398
▁비무장	-12.0398
▁스릴러	-12.0398
▁시베리아	-12.0398
▁에버튼	-12.0398
▁이스트우드	-12.0398
▁테러리즘	-12.0398
만배럴	-12.0398
어리석은	-12.0398
언더파	-12.0398
▁복부비만	-12.0398
▁서포터	-12.0398
Green	-12.0398
▁친인척	-12.0398
▁현충일	-12.0398
프로농구	-12.0398
▁3~4	-12.0398
▁냉소적	-12.0398
▁드물게	-12.0398
▁배기가스	-12.0398
▁유니폼	-12.0398
▁트레이너	-12.0398
MLS	-12.0398
▁카제미	-12.0398
▁루시디	-12.0398
▁임상실험	-12.0398
▁혈압	-12.0398
▁곤봉	-12.0398
▁만수르	-12.0398
KGB	-12.0398
▁차이나데일리	-12.0398
▁쓰러지	-12.0398
▁카밀라	-12.0398
퍼시픽	-12.0398
▁스프링스틴	-12.0398
▁엘비스	-12.0398
▁구덩이	-12.0398
▁붐비는	-12.0398
▁끼치지	-12.0398
▁헬멧	-12.0398
학저널	-12.0398
▁조연상	-12.0398
▁착각	-12.0398
됨으로써	-12.0398
stem	-12.0398
▁그랜트	-12.0398
▁주일미군	-12.0398
▁의정서	-12.0398
▁혈통	-12.0398
▁미생물	-12.0398
▁에모리	-12.0398
참전용사	-12.0398
▁비서관	-12.0398
▁디아즈	-12.0398
(42)	-12.0398
▁발리우드	-12.0398
▁어렸을	-12.0398
▁로하스	-12.0398
▁민주변화	-12.0398
▁rul	-12.0398
▁스트립	-12.0398
▁비디오테이프	-12.0399
(35)	-12.0399
▁경신했다	-12.0399
▁적임자	-12.0399
▁클라우디	-12.0399
▁선두주자	-12.0399
(28)	-12.0399
▁스코어	-12.0399
▁메세지	-12.0399
▁집주인	-12.0399
▁클리닉	-12.0399
▁확실시되	-12.0399
▁클린트	-12.0399
▁얼룩말	-12.0399
▁에어컨	-12.0399
1966	-12.0399
▁move	-12.0399
▁블랙베리	-12.0399
▁폭죽	-12.0399
▁give	-12.0399
나르기스	-12.0399
▁report	-12.0399
▁골드버그	-12.0399
▁히잡	-12.0399
▁청중들	-12.04
▁데이비스컵	-12.04
▁깨뜨	-12.04
▁press	-12.04
▁마땅	-12.04
▁현존하	-12.04
▁특검	-12.04
▁권좌	-12.04
▁전자제품	-12.04
▁겸손	-12.04
▁압축	-12.04
▁완패	-12.0401
▁음란	-12.0401
▁장병들	-12.0401
▁Watch	-12.0401
▁과격단체	-12.0401
▁rate	-12.0401
▁굴욕	-12.0401
▁타깃	-12.0401
했어야	-12.0401
▁가르쳐	-12.0401
▁61%	-12.0402
카스피	-12.0402
Georg	-12.0402
▁차량폭탄테러	-12.0402
▁보호구역	-12.0402
▁상여금	-12.0402
▁훔쳤	-12.0402
▁지켜볼	-12.0402
▁학습	-12.0402
▁쇼핑센터	-12.0402
선수들	-12.0403
▁경범죄	-12.0403
▁추락사고	-12.0403
▁돌봐	-12.0403
▁슈스터	-12.0403
▁항목	-12.0404
▁폭염	-12.0404
▁남아시아	-12.0404
▁출품	-12.0404
▁서유럽	-12.0404
▁없었으나	-12.0404
▁금전적	-12.0404
▁성폭력	-12.0404
▁슬림	-12.0404
▁부흥	-12.0404
▁입혔다	-12.0404
▁3.5%	-12.0405
▁38%	-12.0405
▁가리키	-12.0405
▁라마디	-12.0405
▁유로스타	-12.0405
▁친근	-12.0405
▁야심	-12.0406
▁붉은색	-12.0406
▁대슐	-12.0406
▁휩쓸려	-12.0406
▁굴복	-12.0406
▁관절	-12.0407
▁평화회담	-12.0407
▁빛나는	-12.0408
한계선	-12.0408
▁움직여	-12.0408
▁석권	-12.0408
▁종족	-12.0408
▁피해규모	-12.0409
▁올라있다	-12.0409
▁특유	-12.0409
▁어부들	-12.0409
▁짐작	-12.0409
water	-12.041
▁소멸	-12.041
▁성폭행범	-12.041
▁추산하	-12.041
▁헬러	-12.041
▁취지	-12.041
대책본부	-12.041
▁대선결과	-12.041
▁아이콘	-12.0411
▁결말	-12.0411
▁도킹	-12.0412
▁출입국	-12.0412
▁도망치	-12.0413
▁교도관	-12.0413
▁사흘	-12.0413
▁삼판	-12.0414
▁올리버	-12.0414
▁충실	-12.0414
▁양봉	-12.0414
▁떠올리	-12.0415
▁채팅	-12.0415
clos	-12.0416
▁테너	-12.0416
▁낙타	-12.0416
▁신랄	-12.0417
▁커져	-12.0417
NSC	-12.0417
▁모스크	-12.0417
▁목재	-12.0418
▁독살	-12.0418
느린	-12.0419
▁잠복	-12.0419
▁요한슨	-12.0419
▁열악	-12.0419
▁출구	-12.042
▁통치권	-12.042
▁소변	-12.042
▁태형	-12.042
▁갈색	-12.0421
▁세르비아계	-12.0421
▁슈퍼대의원들	-12.0422
▁신변	-12.0423
해보면	-12.0425
▁발머	-12.0425
▁하향	-12.0426
▁바람직하다	-12.0426
▁능가	-12.0428
▁기상학자	-12.0432
▁최신호에	-12.044
▁leg	-12.0444
클로버	-12.0444
TAM	-12.0444
해지면서	-12.0448
▁시에나	-12.0449
▁행해지	-12.0451
▁조합원들	-12.0451
▁주가지수	-12.0452
▁추측된다	-12.0457
poll	-12.0461
▁국교	-12.0464
▁행정장관	-12.0465
▁집행위원회	-12.0467
▁회기	-12.0473
▁외교위원회	-12.0482
Live	-12.0484
통계국	-12.0493
▁보수주의	-12.0498
▁대중들	-12.0499
▁국정원장	-12.0503
▁응급실	-12.0509
▁중부지역	-12.051
▁소방서장	-12.0519
▁후송됐다	-12.0531
▁실종됐	-12.0532
▁외곽지역	-12.054
well	-12.0548
▁멀어	-12.0568
979	-12.0573
▁심각해지	-12.0573
▁영구적	-12.0575
▁상인들	-12.0582
▁통근자들	-12.0589
▁촉발됐다	-12.063
코넬	-12.0637
▁배심원들	-12.0642
▁취하겠다	-12.0646
▁쥐들	-12.0652
▁공개되	-12.0662
▁피살됐다	-12.0672
보호법	-12.0682
▁골프장	-12.0684
▁형법	-12.0721
▁끝냈	-12.0732
▁2.4	-12.0741
▁1.8	-12.0756
stro	-12.0761
▁추측되	-12.0772
nois	-12.0794
stra	-12.0802
▁인기있	-12.0807
▁아니었	-12.081
▁수상작	-12.0815
▁행성들	-12.085
팬들	-12.0866
▁순례객	-12.0874
▁블로거들	-12.0875
▁제조업체들	-12.0878
놓는다	-12.0887
▁당선되	-12.091
▁개별적	-12.092
▁Service	-12.0958
nel	-12.0966
놓았다	-12.0973
뇌	-12.0977
엑	-12.0978
949	-12.0979
벗	-12.0979
빗	-12.098
덜	-12.0982
FDA	-12.0982
CDC	-12.0982
테러범들	-12.0982
쓸	-12.0983
고등학교	-12.0983
교도소	-12.0984
웹	-12.0984
~30	-12.0984
일리노이	-12.0984
컴퓨터	-12.0985
중요한	-12.0985
펴	-12.0986
섞	-12.0987
미국인들은	-12.0994
부상자	-12.101
▁장갑차	-12.1021
라이언	-12.1033
▁범인들	-12.1034
▁스프링	-12.1044
▁무장괴한들	-12.107
976	-12.1078
▁영국인들	-12.1089
▁악화시키	-12.1113
2009.0	-12.1124
▁발휘하	-12.1131
▁느꼈	-12.1134
▁기념하	-12.1146
▁개발도상국들	-12.1201
▁모욕적	-12.1211
▁열정적	-12.1214
▁attack	-12.122
▁증권거래	-12.1227
▁안토니	-12.1229
멧	-12.1231
컬럼비아	-12.1231
횡	-12.1231
숭	-12.1231
Church	-12.1231
▁EMI	-12.1231
▁Government	-12.1231
▁Heart	-12.1231
▁PETA	-12.1231
▁hostage	-12.1231
▁program	-12.1231
▁난투극	-12.1231
▁네델란드	-12.1231
▁뇌종양	-12.1231
▁록펠러	-12.1231
▁브란카토	-12.1231
▁세계경제포럼	-12.1231
▁스테로이드	-12.1231
▁테스토스테론	-12.1231
▁파키스탄무슬림리그	-12.1231
▁헨더슨	-12.1231
▁호나우지뉴	-12.1231
新	-12.1231
엣	-12.1231
줍	-12.1231
Change	-12.1231
Little	-12.1231
Wii	-12.1231
YouTube	-12.1231
ccess	-12.1231
▁Clinton	-12.1231
▁TGV	-12.1231
▁UCLA	-12.1231
▁job	-12.1231
▁police	-12.1231
▁toward	-12.1231
▁공영방송	-12.1231
▁국제통화기금	-12.1231
▁굶주림	-12.1231
▁까다로운	-12.1231
▁나폴리타노	-12.1231
▁노벨평화상	-12.1231
▁댕기열	-12.1231
▁델라웨어	-12.1231
▁레슬링	-12.1231
▁레터맨	-12.1231
▁롤러코스터	-12.1231
▁맥클라렌	-12.1231
▁메디슨	-12.1231
▁메탄가스	-12.1231
▁무너뜨리	-12.1231
▁바뀌었다	-12.1231
▁바리케이드	-12.1231
▁보디가드	-12.1231
▁부에노스아이레스	-12.1231
▁선덜랜드	-12.1231
▁세계무역센터	-12.1231
▁수족구병	-12.1231
▁순조롭	-12.1231
▁스트라이커	-12.1231
▁스프린트	-12.1231
▁스피커	-12.1231
▁심사숙고	-12.1231
▁아틀란티스	-12.1231
▁어려웠다	-12.1231
▁업데이트	-12.1231
▁여우주연상	-12.1231
▁오랑우탄	-12.1231
▁오마이뉴스	-12.1231
▁유니버셜	-12.1231
▁융통성	-12.1231
▁죄책감	-12.1231
▁츠요시	-12.1231
▁카트만두	-12.1231
▁컨텐츠	-12.1231
▁코카콜라	-12.1231
▁콜럼버스	-12.1231
▁콜럼비아	-12.1231
▁쿠알라룸푸르	-12.1231
▁템파베이	-12.1231
▁펀자브	-12.1231
▁플랫폼	-12.1231
▁핵사찰단	-12.1231
▁행방불명	-12.1231
▁히말라야	-12.1231
넛	-12.1231
삐	-12.1231
산업평균지수	-12.1231
쉘	-12.1231
엿	-12.1231
젼	-12.1231
칫	-12.1231
쿵	-12.1231
트랜스포머	-12.1231
Facebook	-12.1231
IPCC	-12.1231
KCNA	-12.1231
▁control	-12.1231
▁가디언	-12.1231
▁노란색	-12.1231
▁마르세유	-12.1231
▁메트로폴리	-12.1231
▁모토로라	-12.1231
▁불태우	-12.1231
▁살펴보	-12.1231
▁스폰서	-12.1231
▁애국심	-12.1231
▁오두막	-12.1231
▁유투브	-12.1231
교통안전위원회	-12.1231
트래포드	-12.1231
▁가비알	-12.1231
▁로버츠	-12.1231
▁의사소통	-12.1231
▁이병헌	-12.1231
▁저질러	-12.1231
▁짐바브웨아프리카민족	-12.1231
▁팽창	-12.1231
▁헤드폰	-12.1231
rank	-12.1231
▁ESTA	-12.1231
▁강렬한	-12.1231
▁극단적인	-12.1231
선글라스	-12.1231
펜타곤	-12.1231
entral	-12.1231
▁2006.03	-12.1231
▁고래상어	-12.1231
▁국유화	-12.1231
▁목걸이	-12.1231
NLD	-12.1231
▁현기증	-12.1231
오피니언리서치	-12.1231
▁갓난	-12.1231
▁멜리사	-12.1231
▁안테나	-12.1231
▁컨트리	-12.1231
▁내버려	-12.1231
▁모니카	-12.1231
▁물대포	-12.1231
▁비엔나	-12.1231
▁클래식	-12.1231
▁아세안	-12.1231
▁제노아	-12.1231
▁빌라로사	-12.1231
▁징집	-12.1231
▁비참한	-12.1231
eague	-12.1231
▁플레임	-12.1231
▁내보내	-12.1231
▁에볼라	-12.1231
▁레예스	-12.1231
▁오마하	-12.1231
▁튜브	-12.1231
불공평	-12.1231
▁불도저	-12.1231
▁훔치	-12.1231
CPS	-12.1231
▁갑판	-12.1231
▁어소시에이션	-12.1231
▁욕설	-12.1231
▁좌초	-12.1231
▁플로렌스	-12.1231
▁산유국	-12.1232
▁아스카리	-12.1232
▁카우치	-12.1232
▁불어넣	-12.1232
▁맹렬	-12.1232
▁염증	-12.1232
▁자랑스러워	-12.1232
▁Times	-12.1232
▁흉선	-12.1232
▁욕실	-12.1232
▁니가타	-12.1232
▁가오리	-12.1232
▁리스본	-12.1232
▁끼치는	-12.1232
▁운전기사	-12.1232
▁무작위	-12.1232
▁너머	-12.1232
▁왓슨	-12.1232
▁플래카드	-12.1232
▁Ill	-12.1232
(59)	-12.1232
▁브라우	-12.1232
▁다가왔다	-12.1232
▁익숙하	-12.1232
▁부녀자	-12.1232
▁마운트	-12.1232
▁consumer	-12.1232
▁양조장	-12.1232
▁로스쿨	-12.1232
▁유원지	-12.1232
▁히트곡	-12.1232
▁셀틱	-12.1232
▁윈스턴	-12.1232
(48)	-12.1232
▁안와르	-12.1232
▁good	-12.1232
(44)	-12.1232
이었는데	-12.1232
▁무리뉴	-12.1233
▁악몽	-12.1233
ression	-12.1233
▁취미	-12.1233
▁free	-12.1233
▁붙어있	-12.1233
▁호프만	-12.1233
▁선거운동본부	-12.1233
▁탁자	-12.1233
▁meeting	-12.1233
▁징수	-12.1233
▁몰려들었	-12.1233
▁풍습	-12.1233
▁터뜨렸다	-12.1233
▁제주도	-12.1233
▁마지드	-12.1233
▁사무엘	-12.1234
▁니켈	-12.1234
▁로보트	-12.1234
▁강제진압	-12.1234
▁납품	-12.1235
▁처해있다	-12.1235
▁돌려받	-12.1235
▁fail	-12.1235
▁기반시설	-12.1235
▁슈웨	-12.1235
▁폰테	-12.1235
▁달려있다	-12.1235
▁크리스마스트리	-12.1235
▁웬디	-12.1235
▁거둬	-12.1236
▁목욕	-12.1236
=278	-12.1236
▁Hong	-12.1236
▁관중석	-12.1236
▁스마트	-12.1236
▁결탁	-12.1236
▁펠트	-12.1236
▁따냈다	-12.1237
▁용암	-12.1237
▁잠겼다	-12.1237
▁멕시코시티	-12.1237
▁풍속	-12.1237
▁크리스티안	-12.1237
▁높아져	-12.1237
▁도둑	-12.1237
less	-12.1237
▁동결자금	-12.1237
▁바에즈	-12.1237
▁베넷	-12.1237
ground	-12.1238
▁라이플	-12.1238
▁브랜슨	-12.1238
▁휩싸여	-12.1238
▁48%	-12.1238
▁왕족	-12.1239
▁마약거래	-12.1239
▁자금지원	-12.1239
▁패턴	-12.1239
▁비공식적으로	-12.124
▁이해관계	-12.124
▁오빠	-12.1241
▁지나갔다	-12.1241
▁레슬리	-12.1241
▁스페이스	-12.1241
▁육류	-12.1241
▁왕립	-12.1242
▁손녀	-12.1242
▁낮출	-12.1242
▁일어났으며	-12.1242
▁보냈으며	-12.1242
▁위스키	-12.1243
▁win	-12.1243
▁신탁	-12.1243
▁안바르	-12.1243
▁하락폭	-12.1243
▁보컬	-12.1243
▁되어있다	-12.1244
▁계란	-12.1244
▁소장품	-12.1244
▁건강상태	-12.1245
▁피스코	-12.1245
▁질책	-12.1246
▁중개인	-12.1246
▁환경문제	-12.1247
더러운	-12.1247
▁민감하	-12.1247
▁율법	-12.1248
▁소폭	-12.1251
▁에이스	-12.1251
▁체인점	-12.1253
▁윈저	-12.1253
▁그래미상	-12.1256
▁4~5	-12.1259
▁실정이	-12.1261
▁종합지수	-12.1263
해오고	-12.1264
▁종파간	-12.1266
▁필수적	-12.1278
▁vote	-12.1287
▁둔화되	-12.1288
▁울음	-12.1297
▁이르지	-12.1304
스토어	-12.1306
Good	-12.1316
▁연결시키	-12.1322
▁이슬람인들	-12.1328
▁현명하	-12.1336
▁외교부장관	-12.1361
▁동성간	-12.1362
▁이송되었다	-12.1368
▁세워졌	-12.14
▁용이하	-12.142
▁엔지니어들	-12.145
▁군당국	-12.1452
▁선호한다	-12.1459
udi	-12.1465
▁쌍방	-12.1472
▁생산되	-12.1476
▁0.1	-12.148
▁찬성표	-12.148
일방적인	-12.1497
자유주의	-12.1505
▁충족시키	-12.1514
▁이뤄졌으	-12.1535
▁납세자들	-12.1565
1.7%	-12.1597
대변인은	-12.1604
▁절대적	-12.1621
▁연인들	-12.1656
▁시민단체들	-12.1678
▁혁신	-12.1685
클라라	-12.1736
▁부끄러	-12.175
▁있겠	-12.1812
▁트랜	-12.1816
▁투표자들	-12.1833
round	-12.1839
스프레	-12.1845
War	-12.1881
▁장려하	-12.1884
▁연결되	-12.1886
덩어리	-12.1889
3,000	-12.1889
퀸	-12.189
2,000	-12.189
겸	-12.1891
옷	-12.1892
넘	-12.1892
주한미군	-12.1892
조종사	-12.1893
멕시코	-12.1893
윌리엄	-12.1893
희생자	-12.1893
화요일	-12.1894
Korean	-12.1894
이집트	-12.1896
소비자	-12.1911
여성들	-12.1956
사람들	-12.1956
▁스캔	-12.1972
▁간호사들	-12.1992
▁공공장소	-12.2078
▁비서실	-12.2095
▁Africa	-12.2102
▁기쁘	-12.211
낫	-12.2138
▁보았습니	-12.214
Democrat	-12.214
Memorial	-12.214
NTSB	-12.214
▁OLPC	-12.214
▁Prevention	-12.214
▁SARS	-12.214
▁short	-12.214
▁공정거래위원회	-12.214
▁데이터베이스	-12.214
▁되돌려	-12.214
▁보드랜더	-12.214
▁스페셜	-12.214
▁콘테스트	-12.214
▁펠프스	-12.214
렝	-12.214
ASEAN	-12.214
Federal	-12.214
Institute	-12.214
JAXA	-12.214
Kurdis	-12.214
Organization	-12.214
▁Auto	-12.214
▁French	-12.214
▁IUCN	-12.214
▁Taliban	-12.214
▁York	-12.214
▁announce	-12.214
▁envoy	-12.214
▁illegal	-12.214
▁invest	-12.214
▁investigation	-12.214
▁politic	-12.214
▁가브리엘	-12.214
▁곤살레스	-12.214
▁교토의정서	-12.214
▁교통체증	-12.214
▁구테레스	-12.214
▁넘어갔다	-12.214
▁네브래스카	-12.214
▁되찾았다	-12.214
▁디와니야	-12.214
▁라이베리아	-12.214
▁라자스탄	-12.214
▁레오나르도	-12.214
▁마르티네즈	-12.214
▁몬태나	-12.214
▁무사콸라	-12.214
▁문자메시지	-12.214
▁브루클린	-12.214
▁삽입	-12.214
▁샌디에고	-12.214
▁소용돌이	-12.214
▁아틀란타	-12.214
▁아흐마드	-12.214
▁압수수색	-12.214
▁야누코비치	-12.214
▁약물복용	-12.214
▁에스판디아리	-12.214
▁여겨진다	-12.214
▁원심분리기	-12.214
▁유벤투스	-12.214
▁유혈충돌	-12.214
▁인테르팍스	-12.214
▁자바코뿔소	-12.214
▁전시작전통제권	-12.214
▁조직폭력배	-12.214
▁치솟았다	-12.214
▁카디널스	-12.214
▁카슈미르	-12.214
▁컵케이크	-12.214
▁큐레이터	-12.214
▁크루그먼	-12.214
▁크메르루즈	-12.214
▁타지마할	-12.214
▁태즈메이니아	-12.214
▁파르베즈	-12.214
▁페르난데즈	-12.214
▁풍력발전기	-12.214
▁프랑코	-12.214
▁프리미엄	-12.214
▁피츠제럴드	-12.214
▁황열병	-12.214
▁휴먼라이츠워치	-12.214
▁흑색종	-12.214
궂	-12.214
다케시마	-12.214
맙	-12.214
송완영	-12.214
시킴으로써	-12.214
오퍼튜니티	-12.214
프레틸린	-12.214
▁dead	-12.214
▁고프섬	-12.214
▁공동묘지	-12.214
▁농무부	-12.214
▁동아태	-12.214
▁백만장자	-12.214
▁불충분	-12.214
▁스펜서	-12.214
▁양귀비	-12.214
▁연방대법원	-12.214
▁치나왓	-12.214
▁핵원자로	-12.214
▁회계연도	-12.214
▁secret	-12.214
▁거식증	-12.214
▁뇌물수수	-12.214
▁박스데일	-12.214
▁반독점	-12.214
▁체스판	-12.214
▁트레제게	-12.214
▁파라과이	-12.214
▁Dae	-12.214
▁나가사키	-12.214
▁라리자니	-12.214
▁마들렌	-12.214
▁상무장관	-12.214
▁수뇌부	-12.214
▁알레한드	-12.214
▁영주권	-12.214
▁친서방	-12.214
▁나탄즈	-12.214
▁동호회	-12.214
▁울타리	-12.214
▁모레노	-12.214
▁숭배	-12.214
▁십자군	-12.214
▁미들턴	-12.214
▁앵커리지	-12.214
▁Law	-12.214
▁개회식	-12.214
▁관방장관	-12.214
▁농경지	-12.214
▁아티스트	-12.214
▁외무상	-12.214
▁프로세서	-12.214
롤링스톤스	-12.214
KLM	-12.214
▁언쟁	-12.214
▁호기심	-12.214
▁재구성	-12.214
▁비키니	-12.214
▁인권운동가	-12.214
▁고생물학자	-12.214
▁구치소	-12.214
▁탬파	-12.214
MySpace	-12.214
▁오클리	-12.214
▁메수드	-12.214
▁불사조	-12.214
▁오름세	-12.214
▁산토스	-12.214
▁Music	-12.214
▁기조연설	-12.214
▁아파치	-12.214
▁엄밀	-12.214
▁총기소지	-12.2141
▁누워있	-12.2141
▁밀어붙	-12.2141
▁잔디코트	-12.2141
▁험난	-12.2141
▁국가안전보장회의	-12.2141
▁냉정	-12.2141
▁바우어	-12.2141
▁노스웨스트	-12.2141
▁켈러	-12.2141
▁해파리	-12.2141
▁럭비	-12.2141
▁prim	-12.2141
▁general	-12.2141
▁국가원수	-12.2141
▁피아트	-12.2141
▁메이저리그	-12.2141
▁Spain	-12.2141
▁리브스	-12.2141
▁징크	-12.2141
▁선제공격	-12.2141
count	-12.2141
▁아메리칸리그	-12.2141
▁풀어줬다	-12.2141
▁갑부	-12.2141
▁미립자	-12.2141
▁성수기	-12.2141
▁매혹적	-12.2142
▁붙잡혔다	-12.2142
▁쇼핑객들	-12.2142
▁도보로	-12.2142
▁007	-12.2142
▁맥코넬	-12.2142
▁고속철	-12.2142
▁팩스	-12.2142
▁자유무역	-12.2142
▁마이어스	-12.2142
▁유대관계	-12.2142
▁0.6%	-12.2142
▁양로원	-12.2142
▁arm	-12.2142
▁교묘	-12.2142
▁파트너십	-12.2142
▁정전사태	-12.2142
▁대명사	-12.2142
▁일어났는지	-12.2142
▁알리탈리아	-12.2142
▁남아메리카	-12.2143
▁레이첼	-12.2143
power	-12.2143
▁자연보호	-12.2143
▁보복공격	-12.2143
▁권익	-12.2143
▁특허	-12.2143
▁한미동맹	-12.2143
▁데려가	-12.2143
▁사기꾼	-12.2143
▁다이빙	-12.2143
▁도와줄	-12.2143
▁친딸	-12.2143
▁매출액	-12.2143
▁받으려	-12.2143
▁이글스	-12.2144
▁생활방식	-12.2144
▁East	-12.2144
▁이정표	-12.2144
▁흔들림	-12.2144
▁클래스	-12.2144
▁미술품	-12.2144
DHS	-12.2144
▁헤스턴	-12.2144
(50)	-12.2144
▁위성사진	-12.2144
▁진통제	-12.2144
▁41%	-12.2144
▁북극광	-12.2144
▁망명생활	-12.2145
▁타이베이	-12.2145
▁옳다	-12.2145
▁떠돌	-12.2145
▁깊숙	-12.2145
▁구호작업	-12.2145
▁ahead	-12.2145
▁체이스	-12.2145
▁쓰레기통	-12.2146
▁악취	-12.2146
▁데이먼	-12.2146
▁페트라	-12.2146
ICE	-12.2146
▁관습	-12.2146
▁크리스탈	-12.2147
캐리비안	-12.2147
▁라디오뉴스	-12.2147
▁bid	-12.2147
▁폭력시위	-12.2147
▁실종사건	-12.2147
▁습성	-12.2148
▁회상했	-12.2148
▁빠져있다	-12.2148
▁희생양	-12.2148
▁어린아이	-12.2148
▁자살폭탄테러범	-12.2148
▁슈머	-12.2149
▁ask	-12.215
▁쉽고	-12.2151
▁open	-12.2153
▁사교적	-12.2154
▁난무하	-12.2154
직원들	-12.2155
▁실용적	-12.2155
▁apolog	-12.2155
▁플러	-12.2156
▁암호키	-12.2157
person	-12.2158
▁남겨놓	-12.2161
▁유의원	-12.2163
▁시의원	-12.2165
Meet	-12.2166
▁점진적	-12.2168
live	-12.218
▁출생률	-12.2183
Free	-12.2188
항소법원	-12.2201
건스	-12.2203
▁예일대	-12.2225
▁주관하	-12.2246
▁India	-12.2249
▁주력하	-12.225
▁원로들	-12.2255
▁살고있	-12.2306
▁투입되	-12.2314
▁개발자들	-12.2336
▁당황스럽	-12.2354
evi	-12.236
했어요	-12.2408
했었습니다	-12.2419
레일리	-12.242
▁환호하	-12.2473
rida	-12.2485
스트레이	-12.2495
주지사	-12.2506
▁지휘관들	-12.2526
▁순례객들	-12.2548
▁물리쳤	-12.2583
▁고민하	-12.2615
었어요	-12.2615
▁택하	-12.2627
Shi	-12.266
▁증진시키	-12.266
▁거주자들	-12.2743
ium	-12.2748
▁인식되	-12.277
▁이용되	-12.2773
▁worker	-12.2877
▁옹호하	-12.2881
ormer	-12.2887
前	-12.2889
BDA	-12.289
Center	-12.289
챔피언십	-12.2891
앨	-12.2891
윌	-12.2892
돌고래	-12.2892
밥	-12.2892
그래서	-12.2892
여론조사	-12.2893
오랫동안	-12.2893
변호사	-12.2893
짐바브웨	-12.2893
텍사스	-12.2893
공화당	-12.2894
가자지구	-12.2894
▁초래하	-12.2894
유대인	-12.2896
▁법사위	-12.2908
off	-12.2913
▁성직자들	-12.2948
▁염려하	-12.2973
▁피난민들	-12.2976
istic	-12.3017
▁작곡	-12.3022
잘랄	-12.3057
▁반대자들	-12.3084
▁느낀	-12.3089
▁않았으	-12.3107
▁아흐메	-12.3118
▁담겨있	-12.3134
럿	-12.3137
왁	-12.3137
▁Elect	-12.3139
onsumer	-12.3139
뉘	-12.314
Barack	-12.314
▁2-0(6-46-	-12.314
▁2-0(7-6	-12.314
▁spending	-12.314
낀	-12.314
Google	-12.314
mission	-12.314
▁AEY	-12.314
▁Council	-12.314
▁Intel	-12.314
▁Office	-12.314
▁ambassador	-12.314
▁declar	-12.314
▁dispute	-12.314
▁expresse	-12.314
▁human	-12.314
▁public	-12.314
▁resume	-12.314
▁school	-12.314
▁국내총생산	-12.314
▁군사분계선	-12.314
▁낙관론	-12.314
▁내려앉았다	-12.314
▁네티즌	-12.314
▁당혹감	-12.314
▁도라에몽	-12.314
▁도로매설폭탄테러	-12.314
▁도마뱀	-12.314
▁돌아섰다	-12.314
▁떠들썩	-12.314
▁뚱뚱	-12.314
▁류마티스	-12.314
▁모래주머니	-12.314
▁몽고메리	-12.314
▁무그니예	-12.314
▁무력충돌	-12.314
▁미네아폴리스	-12.314
▁밴쿠버	-12.314
▁보르네오	-12.314
▁사모펀드	-12.314
▁상파울로	-12.314
▁선댄스	-12.314
▁스턴트맨	-12.314
▁아유르베다	-12.314
▁안타깝게	-12.314
▁알루미늄	-12.314
▁앞질렀다	-12.314
▁양쯔강	-12.314
▁연두교서	-12.314
▁오클랜드	-12.314
▁온두라스	-12.314
▁은자메나	-12.314
▁이매뉴얼	-12.314
▁이슬라믹	-12.314
▁인권탄압	-12.314
▁자이언츠	-12.314
▁저소득층	-12.314
▁전년동기	-12.314
▁준우승	-12.314
▁최루가스	-12.314
▁추돌사고	-12.314
▁커틀러	-12.314
▁컨디션	-12.314
▁콘텐츠	-12.314
▁크렘린	-12.314
▁트리니다드	-12.314
▁틀림없다	-12.314
▁티모셴코	-12.314
▁파이어폭스	-12.314
▁페더라인	-12.314
▁페덜라인	-12.314
▁페샤와르	-12.314
▁프랜시스	-12.314
▁하룻밤	-12.314
▁햄프셔	-12.314
▁호주오픈테니스대회	-12.314
▁히딩크	-12.314
난민고등판무관	-12.314
농축우라늄	-12.314
센티미터	-12.314
주택담보대출	-12.314
펭	-12.314
▁bomb	-12.314
▁country	-12.314
▁detain	-12.314
▁ready	-12.314
▁research	-12.314
▁깃털	-12.314
▁나침반	-12.314
▁대한축구협회	-12.314
▁레즈비언	-12.314
▁르윈스키	-12.314
▁식약청	-12.314
▁앞당겨	-12.314
▁처토프	-12.314
▁캐스팅	-12.314
▁탄자니아	-12.314
▁파브레가스	-12.314
ODM	-12.314
credit	-12.314
▁경각심	-12.314
▁경질유	-12.314
▁공중보건	-12.314
▁사탕수수	-12.314
▁신입생	-12.314
▁아인슈타인	-12.314
[...]
